{
  "vocab": {
    "0": "00",
    "1": "01",
    "2": "02",
    "3": "03",
    "4": "04",
    "5": "05",
    "6": "06",
    "7": "07",
    "8": "08",
    "9": "09",
    "10": "0a",
    "11": "0b",
    "12": "0c",
    "13": "0d",
    "14": "0e",
    "15": "0f",
    "16": "10",
    "17": "11",
    "18": "12",
    "19": "13",
    "20": "14",
    "21": "15",
    "22": "16",
    "23": "17",
    "24": "18",
    "25": "19",
    "26": "1a",
    "27": "1b",
    "28": "1c",
    "29": "1d",
    "30": "1e",
    "31": "1f",
    "32": "20",
    "33": "21",
    "34": "22",
    "35": "23",
    "36": "24",
    "37": "25",
    "38": "26",
    "39": "27",
    "40": "28",
    "41": "29",
    "42": "2a",
    "43": "2b",
    "44": "2c",
    "45": "2d",
    "46": "2e",
    "47": "2f",
    "48": "30",
    "49": "31",
    "50": "32",
    "51": "33",
    "52": "34",
    "53": "35",
    "54": "36",
    "55": "37",
    "56": "38",
    "57": "39",
    "58": "3a",
    "59": "3b",
    "60": "3c",
    "61": "3d",
    "62": "3e",
    "63": "3f",
    "64": "40",
    "65": "41",
    "66": "42",
    "67": "43",
    "68": "44",
    "69": "45",
    "70": "46",
    "71": "47",
    "72": "48",
    "73": "49",
    "74": "4a",
    "75": "4b",
    "76": "4c",
    "77": "4d",
    "78": "4e",
    "79": "4f",
    "80": "50",
    "81": "51",
    "82": "52",
    "83": "53",
    "84": "54",
    "85": "55",
    "86": "56",
    "87": "57",
    "88": "58",
    "89": "59",
    "90": "5a",
    "91": "5b",
    "92": "5c",
    "93": "5d",
    "94": "5e",
    "95": "5f",
    "96": "60",
    "97": "61",
    "98": "62",
    "99": "63",
    "100": "64",
    "101": "65",
    "102": "66",
    "103": "67",
    "104": "68",
    "105": "69",
    "106": "6a",
    "107": "6b",
    "108": "6c",
    "109": "6d",
    "110": "6e",
    "111": "6f",
    "112": "70",
    "113": "71",
    "114": "72",
    "115": "73",
    "116": "74",
    "117": "75",
    "118": "76",
    "119": "77",
    "120": "78",
    "121": "79",
    "122": "7a",
    "123": "7b",
    "124": "7c",
    "125": "7d",
    "126": "7e",
    "127": "7f",
    "128": "80",
    "129": "81",
    "130": "82",
    "131": "83",
    "132": "84",
    "133": "85",
    "134": "86",
    "135": "87",
    "136": "88",
    "137": "89",
    "138": "8a",
    "139": "8b",
    "140": "8c",
    "141": "8d",
    "142": "8e",
    "143": "8f",
    "144": "90",
    "145": "91",
    "146": "92",
    "147": "93",
    "148": "94",
    "149": "95",
    "150": "96",
    "151": "97",
    "152": "98",
    "153": "99",
    "154": "9a",
    "155": "9b",
    "156": "9c",
    "157": "9d",
    "158": "9e",
    "159": "9f",
    "160": "a0",
    "161": "a1",
    "162": "a2",
    "163": "a3",
    "164": "a4",
    "165": "a5",
    "166": "a6",
    "167": "a7",
    "168": "a8",
    "169": "a9",
    "170": "aa",
    "171": "ab",
    "172": "ac",
    "173": "ad",
    "174": "ae",
    "175": "af",
    "176": "b0",
    "177": "b1",
    "178": "b2",
    "179": "b3",
    "180": "b4",
    "181": "b5",
    "182": "b6",
    "183": "b7",
    "184": "b8",
    "185": "b9",
    "186": "ba",
    "187": "bb",
    "188": "bc",
    "189": "bd",
    "190": "be",
    "191": "bf",
    "192": "c0",
    "193": "c1",
    "194": "c2",
    "195": "c3",
    "196": "c4",
    "197": "c5",
    "198": "c6",
    "199": "c7",
    "200": "c8",
    "201": "c9",
    "202": "ca",
    "203": "cb",
    "204": "cc",
    "205": "cd",
    "206": "ce",
    "207": "cf",
    "208": "d0",
    "209": "d1",
    "210": "d2",
    "211": "d3",
    "212": "d4",
    "213": "d5",
    "214": "d6",
    "215": "d7",
    "216": "d8",
    "217": "d9",
    "218": "da",
    "219": "db",
    "220": "dc",
    "221": "dd",
    "222": "de",
    "223": "df",
    "224": "e0",
    "225": "e1",
    "226": "e2",
    "227": "e3",
    "228": "e4",
    "229": "e5",
    "230": "e6",
    "231": "e7",
    "232": "e8",
    "233": "e9",
    "234": "ea",
    "235": "eb",
    "236": "ec",
    "237": "ed",
    "238": "ee",
    "239": "ef",
    "240": "f0",
    "241": "f1",
    "242": "f2",
    "243": "f3",
    "244": "f4",
    "245": "f5",
    "246": "f6",
    "247": "f7",
    "248": "f8",
    "249": "f9",
    "250": "fa",
    "251": "fb",
    "252": "fc",
    "253": "fd",
    "254": "fe",
    "255": "ff",
    "256": "5b5041445d",
    "257": "5b424f535d",
    "258": "5b454f535d",
    "259": "5b53595354454d5d",
    "260": "5b555345525d",
    "261": "5b415353495354414e545d",
    "262": "5b54484f554748545d",
    "263": "6520",
    "264": "7468",
    "265": "7420",
    "266": "7320",
    "267": "6f75",
    "268": "2c20",
    "269": "6420",
    "270": "7220",
    "271": "696e",
    "272": "616e",
    "273": "656e",
    "274": "3a0a",
    "275": "7920",
    "276": "0a0a",
    "277": "6572",
    "278": "6f6e",
    "279": "6c6c",
    "280": "6172",
    "281": "74686520",
    "282": "796f75",
    "283": "6f20",
    "284": "6861",
    "285": "6f72",
    "286": "2e0a0a",
    "287": "6573",
    "288": "2c0a",
    "289": "6974",
    "290": "697320",
    "291": "6561",
    "292": "6c6c20",
    "293": "737420",
    "294": "746865",
    "295": "6e6f",
    "296": "6f6d",
    "297": "6620",
    "298": "6972",
    "299": "4920",
    "300": "7573",
    "301": "746f20",
    "302": "5553",
    "303": "55533a0a",
    "304": "686520",
    "305": "616e6420",
    "306": "6174",
    "307": "796f7520",
    "308": "3b20",
    "309": "6869",
    "310": "4955533a0a",
    "311": "6865",
    "312": "696e67",
    "313": "696e20",
    "314": "7769",
    "315": "7374",
    "316": "2e20",
    "317": "6f77",
    "318": "7265",
    "319": "6f6f",
    "320": "3a20",
    "321": "697420",
    "322": "746820",
    "323": "7665",
    "324": "766520",
    "325": "616c",
    "326": "4941",
    "327": "49413a0a",
    "328": "6f7220",
    "329": "6820",
    "330": "6565",
    "331": "6d61",
    "332": "6469",
    "333": "617420",
    "334": "454e",
    "335": "6972737420",
    "336": "757320",
    "337": "6120",
    "338": "68617420",
    "339": "6f6620",
    "340": "6265",
    "341": "6c6420",
    "342": "0a54",
    "343": "697469",
    "344": "7365",
    "345": "7a656e",
    "346": "2e0a0a56",
    "347": "6974697a656e",
    "348": "616e20",
    "349": "7269",
    "350": "6c69",
    "351": "7768",
    "352": "796f757220",
    "353": "466972737420",
    "354": "6f757220",
    "355": "6365",
    "356": "436974697a656e",
    "357": "436974697a656e3a0a",
    "358": "616d",
    "359": "732c20",
    "360": "7072",
    "361": "3f0a0a",
    "362": "696e6720",
    "363": "6f6e20",
    "364": "657220",
    "365": "61726520",
    "366": "7761",
    "367": "277320",
    "368": "68697320",
    "369": "6b6520",
    "370": "6369",
    "371": "6e20",
    "372": "6f756c6420",
    "373": "6e6f7420",
    "374": "656e20",
    "375": "792c20",
    "376": "0a57",
    "377": "652c20",
    "378": "7469",
    "379": "636820",
    "380": "656420",
    "381": "7375",
    "382": "6275",
    "383": "7468617420",
    "384": "466972737420436974697a656e3a0a",
    "385": "6d7920",
    "386": "742c20",
    "387": "6b20",
    "388": "65726520",
    "389": "6d6f",
    "390": "6c61",
    "391": "6f6c",
    "392": "636f6d",
    "393": "666f7220",
    "394": "726561",
    "395": "7769746820",
    "396": "626c",
    "397": "68696d",
    "398": "7765",
    "399": "6861766520",
    "400": "642c20",
    "401": "676f6f",
    "402": "2720",
    "403": "7275",
    "404": "7261",
    "405": "6768",
    "406": "2e0a0a4d",
    "407": "666f72",
    "408": "7468657920",
    "409": "6f6e6520",
    "410": "6d75",
    "411": "416e",
    "412": "4d6172",
    "413": "6c65",
    "414": "6563",
    "415": "636520",
    "416": "454e454e",
    "417": "454e454e4955533a0a",
    "418": "6f7720",
    "419": "2c0a54",
    "420": "4152",
    "421": "7370",
    "422": "7468657220",
    "423": "7368",
    "424": "4d61726369",
    "425": "676f6f6420",
    "426": "697220",
    "427": "416e6420",
    "428": "6e6f77",
    "429": "626520",
    "430": "776f72",
    "431": "746865697220",
    "432": "7468697320",
    "433": "756e",
    "434": "73656e",
    "435": "730a",
    "436": "696c",
    "437": "4952",
    "438": "495247",
    "439": "49524749",
    "440": "495247494c",
    "441": "495247494c49413a0a",
    "442": "7065",
    "443": "657265",
    "444": "6465",
    "445": "656e74",
    "446": "640a",
    "447": "7361",
    "448": "657320",
    "449": "6d6164",
    "450": "415243",
    "451": "4152434955533a0a",
    "452": "776520",
    "453": "6d6520",
    "454": "6163",
    "455": "62757420",
    "456": "6973",
    "457": "6761",
    "458": "6964",
    "459": "6c7920",
    "460": "736861",
    "461": "7570",
    "462": "276420",
    "463": "2e0a0a56495247494c49413a0a",
    "464": "7572",
    "465": "2e0a0a466972737420436974697a656e3a0a",
    "466": "616c6c20",
    "467": "276c6c20",
    "468": "6d6f72",
    "469": "210a0a",
    "470": "617320",
    "471": "736520",
    "472": "3f20",
    "473": "436f6d",
    "474": "656d",
    "475": "77696c6c20",
    "476": "62656c6c",
    "477": "2d2d",
    "478": "6f6d20",
    "479": "414c",
    "480": "414c45",
    "481": "414c4552",
    "482": "414c455249413a0a",
    "483": "6b6e6f77",
    "484": "636f75",
    "485": "776f756c6420",
    "486": "7468656d",
    "487": "6720",
    "488": "73656c",
    "489": "77617320",
    "490": "746572",
    "491": "68657920",
    "492": "2c0a57",
    "493": "6d6f737420",
    "494": "6368",
    "495": "526f6d",
    "496": "740a",
    "497": "626f",
    "498": "2e0a0a56414c455249413a0a",
    "499": "74686572",
    "500": "2774",
    "501": "657420",
    "502": "766572",
    "503": "746f",
    "504": "706172",
    "505": "676f",
    "506": "647320",
    "507": "2e0a0a53",
    "508": "6761696e",
    "509": "68696d20",
    "510": "7768617420",
    "511": "77656c6c",
    "512": "74656e",
    "513": "74686f75",
    "514": "6869636820",
    "515": "6661",
    "516": "646f20",
    "517": "6479",
    "518": "7461",
    "519": "696e69",
    "520": "726f6d20",
    "521": "61746f72",
    "522": "4f4c",
    "523": "4f4c55",
    "524": "4f4c554d",
    "525": "4f4c554d4e",
    "526": "4f4c554d4e49413a0a",
    "527": "65617220",
    "528": "7468616e20",
    "529": "2c20616e6420",
    "530": "636f756e",
    "531": "6d616e",
    "532": "6c79",
    "533": "7468696e",
    "534": "6666",
    "535": "6f7572",
    "536": "4d617263697573",
    "537": "7472",
    "538": "676820",
    "539": "6c6561",
    "540": "6d75737420",
    "541": "6f7665",
    "542": "272074686520",
    "543": "2120",
    "544": "65737420",
    "545": "2c204920",
    "546": "7368616c6c20",
    "547": "2e0a0a4d454e454e4955533a0a",
    "548": "6e65",
    "549": "626c6520",
    "550": "73206f6620",
    "551": "0a546f20",
    "552": "7377",
    "553": "3f0a0a4d",
    "554": "686174",
    "555": "2e0a0a4d4152434955533a0a",
    "556": "494e",
    "557": "494e4955533a0a",
    "558": "6d6164616d",
    "559": "73706561",
    "560": "2e0a",
    "561": "67687420",
    "562": "65737320",
    "563": "3b0a",
    "564": "6e64",
    "565": "616761696e",
    "566": "636f6e",
    "567": "69766520",
    "568": "64696420",
    "569": "54686520",
    "570": "686f6e",
    "571": "7765726520",
    "572": "6473",
    "573": "636b",
    "574": "6d616b6520",
    "575": "6461",
    "576": "776172",
    "577": "68656172",
    "578": "616e7377",
    "579": "66726f6d20",
    "580": "4e6f",
    "581": "2c0a416e6420",
    "582": "53656e",
    "583": "53656e61746f72",
    "584": "53656e61746f723a0a",
    "585": "6669",
    "586": "5455533a0a",
    "587": "416c6c",
    "588": "416c6c3a0a",
    "589": "596f75",
    "590": "4361",
    "591": "746f2074686520",
    "592": "6f70",
    "593": "6f776e20",
    "594": "6d6f726520",
    "595": "65636f6e",
    "596": "65636f6e6420",
    "597": "756c",
    "598": "646f",
    "599": "736964",
    "600": "3b20616e6420",
    "601": "5768617420",
    "602": "74686573",
    "603": "6f272074686520",
    "604": "697479",
    "605": "676f20",
    "606": "7320616e6420",
    "607": "5468657920",
    "608": "737472",
    "609": "796f7572",
    "610": "656c6c20",
    "611": "0a41",
    "612": "627920",
    "613": "686f75",
    "614": "657273",
    "615": "646973",
    "616": "7468656e",
    "617": "66696e",
    "618": "67726561",
    "619": "647920",
    "620": "656c",
    "621": "70726f",
    "622": "2c20796f7520",
    "623": "69757320",
    "624": "4d61726369757320",
    "625": "2e0a57",
    "626": "696620",
    "627": "6c6520",
    "628": "747320",
    "629": "74206f6620",
    "630": "65732c20",
    "631": "7669",
    "632": "63657320",
    "633": "3f0a0a466972737420436974697a656e3a0a",
    "634": "61792c20",
    "635": "63616e20",
    "636": "776869636820",
    "637": "6e6f20",
    "638": "68616420",
    "639": "61726d",
    "640": "596f757220",
    "641": "0a54686520",
    "642": "6c696b6520",
    "643": "2c0a4f",
    "644": "707265",
    "645": "7474",
    "646": "76657220",
    "647": "616e73776572",
    "648": "2754",
    "649": "616c20",
    "650": "6d65",
    "651": "6272",
    "652": "75706f6e20",
    "653": "74696f6e",
    "654": "746865736520",
    "655": "46697273742053656e61746f723a0a",
    "656": "4943",
    "657": "4943494e4955533a0a",
    "658": "4252",
    "659": "425255",
    "660": "4252555455533a0a",
    "661": "596f7520",
    "662": "726573",
    "663": "6b6e6f7720",
    "664": "65636f6e6420436974697a656e3a0a",
    "665": "7468652070",
    "666": "6c75",
    "667": "74686174",
    "668": "75732c20",
    "669": "7468656d20",
    "670": "6765",
    "671": "666972",
    "672": "70726f75",
    "673": "616c69",
    "674": "6f7573",
    "675": "73617920",
    "676": "76656e20",
    "677": "7020",
    "678": "6f7468657220",
    "679": "68657265",
    "680": "616e64",
    "681": "69746820",
    "682": "6420746f20",
    "683": "667269",
    "684": "667269656e",
    "685": "796f757273656c",
    "686": "74656c6c20",
    "687": "617265",
    "688": "466f7220",
    "689": "616e74",
    "690": "76657320",
    "691": "2c0a5768",
    "692": "7965",
    "693": "666f",
    "694": "6c6c2c20",
    "695": "49276c6c20",
    "696": "7468652062656c6c",
    "697": "0a4f",
    "698": "736f20",
    "699": "747275",
    "700": "496e20",
    "701": "4920616d",
    "702": "626c6f6f",
    "703": "686f7720",
    "704": "68657220",
    "705": "2c0a5468617420",
    "706": "616e6720",
    "707": "4175",
    "708": "41756669",
    "709": "417566696469",
    "710": "436f6d696e69",
    "711": "2e0a0a564f4c554d4e49413a0a",
    "712": "6565642c20",
    "713": "73686520",
    "714": "65656420",
    "715": "6865617220",
    "716": "737065616b",
    "717": "436169757320",
    "718": "636f72",
    "719": "6c657420",
    "720": "6f6e65",
    "721": "776f72642c20",
    "722": "737572",
    "723": "6665",
    "724": "6775",
    "725": "616c6c",
    "726": "797320",
    "727": "796f752c20",
    "728": "74686f75676820",
    "729": "6f66",
    "730": "7475",
    "731": "610a",
    "732": "496620",
    "733": "637573",
    "734": "617469",
    "735": "7369646520",
    "736": "617920",
    "737": "6c6f7665",
    "738": "6174746572",
    "739": "757220",
    "740": "7374726f6e",
    "741": "64732c20",
    "742": "736972",
    "743": "0a48",
    "744": "0a53",
    "745": "696d",
    "746": "2c0a54686520",
    "747": "69742c20",
    "748": "696e64",
    "749": "6372",
    "750": "677261",
    "751": "2e204920",
    "752": "4275",
    "753": "656d62",
    "754": "2c0a53",
    "755": "73656520",
    "756": "6170",
    "757": "2764",
    "758": "2d2d0a0a",
    "759": "3f0a0a4d454e454e4955533a0a",
    "760": "2e2057",
    "761": "6c6f6f",
    "762": "72656365",
    "763": "616e7420",
    "764": "2c2074686520",
    "765": "62792074686520",
    "766": "706c61",
    "767": "492077696c6c20",
    "768": "6162",
    "769": "67656e",
    "770": "67656e6572",
    "771": "4920616d20",
    "772": "6e6f740a",
    "773": "526f6d6520",
    "774": "7468696e6b",
    "775": "686174277320",
    "776": "486520",
    "777": "73686f756c6420",
    "778": "696e2074686520",
    "779": "7369",
    "780": "636b20",
    "781": "666f72746820",
    "782": "706f77",
    "783": "566f6c",
    "784": "566f6c73",
    "785": "566f6c7363657320",
    "786": "2774697320",
    "787": "75732e0a0a",
    "788": "2e0a0a534943494e4955533a0a",
    "789": "686f6e6f7572",
    "790": "564f4c554d4e49413a0a",
    "791": "736f6e",
    "792": "2c20676f6f6420",
    "793": "4265",
    "794": "70726f63",
    "795": "616e7920",
    "796": "2e0a0a416c6c3a0a",
    "797": "6f6c7665",
    "798": "66616d",
    "799": "636869",
    "800": "70656f70",
    "801": "576520",
    "802": "4c657420",
    "803": "696c6c20",
    "804": "6175",
    "805": "69747920",
    "806": "790a",
    "807": "706572",
    "808": "77686f6c",
    "809": "6d69",
    "810": "7468696e6b20",
    "811": "64656172",
    "812": "3a2074686520",
    "813": "616666",
    "814": "76656e74",
    "815": "76656e",
    "816": "7069",
    "817": "666f722074686520",
    "818": "737065616b20",
    "819": "68756e",
    "820": "67657220",
    "821": "62726561",
    "822": "2e0a0a5365636f6e6420436974697a656e3a0a",
    "823": "616761696e737420",
    "824": "636f6d6d",
    "825": "436f6e",
    "826": "68617320",
    "827": "646f6e6520",
    "828": "636f756e7472",
    "829": "636f756c6420",
    "830": "7420746f20",
    "831": "6769766520",
    "832": "726570",
    "833": "4e61792c20",
    "834": "69732c20",
    "835": "74696c6c20",
    "836": "63616e",
    "837": "68656c",
    "838": "6163637573",
    "839": "706574",
    "840": "436f6d652c20",
    "841": "77686f20",
    "842": "636f6d657320",
    "843": "776865726520",
    "844": "0a5769746820",
    "845": "6d6174746572",
    "846": "627573",
    "847": "627573696e",
    "848": "6973206e6f7420",
    "849": "617465",
    "850": "76650a",
    "851": "766573",
    "852": "686561",
    "853": "6174652c20",
    "854": "77686f",
    "855": "637572",
    "856": "6d656e74",
    "857": "6d6f7265",
    "858": "7574",
    "859": "65617420",
    "860": "6f757320",
    "861": "666f6c6c",
    "862": "74656c6c20796f75",
    "863": "616c65",
    "864": "5765",
    "865": "57656c6c2c20",
    "866": "5468",
    "867": "626f6479",
    "868": "6d656d62",
    "869": "6f6e6c7920",
    "870": "6d61646520",
    "871": "77656c6c20",
    "872": "6564",
    "873": "6d7574",
    "874": "6d7574696e",
    "875": "0a5468657920",
    "876": "7375636820",
    "877": "6b696e67",
    "878": "656e636520",
    "879": "7175",
    "880": "6974206973",
    "881": "6578",
    "882": "74686569722063",
    "883": "0a416e6420",
    "884": "677265617420",
    "885": "6173",
    "886": "666972737420",
    "887": "6e6f626c6520",
    "888": "6576657220",
    "889": "6e6f7220",
    "890": "65722c20",
    "891": "6772656174",
    "892": "646f776e20",
    "893": "6b6565",
    "894": "736565",
    "895": "70726573",
    "896": "747572",
    "897": "6772",
    "898": "6e6f74",
    "899": "6e6577",
    "900": "68616c",
    "901": "2e2054",
    "902": "736869",
    "903": "7474657220",
    "904": "6f7574206f6620",
    "905": "4155",
    "906": "415546",
    "907": "41554649",
    "908": "4155464944",
    "909": "41554649444955533a0a",
    "910": "526f6d65",
    "911": "6166",
    "912": "61726577656c6c",
    "913": "687573",
    "914": "6d6164616d3b20",
    "915": "496e64",
    "916": "496e646565642c20",
    "917": "210a0a564f4c554d4e49413a0a",
    "918": "6c616479",
    "919": "666f726520",
    "920": "72617468657220",
    "921": "3f0a0a416c6c3a0a",
    "922": "6f6c766564",
    "923": "70656f706c65",
    "924": "4c657420757320",
    "925": "277420",
    "926": "7761792c20",
    "927": "6e6520",
    "928": "74686520706174",
    "929": "746865207061747269",
    "930": "7468652070617472696369",
    "931": "7468652070617472696369616e",
    "932": "2e0a5768617420",
    "933": "776869",
    "934": "6f62",
    "935": "7061727469",
    "936": "616e6365",
    "937": "0a7375",
    "938": "676520",
    "939": "636f6d6520",
    "940": "676f647320",
    "941": "490a",
    "942": "4361697573204d617263697573",
    "943": "6669727374",
    "944": "7665727920",
    "945": "636f6d6d6f6e",
    "946": "676f6f640a",
    "947": "6f727420",
    "948": "6265696e6720",
    "949": "70726f7564",
    "950": "6d616c69",
    "951": "6861746820",
    "952": "656e6365",
    "953": "706c6561",
    "954": "73652068697320",
    "955": "70617274",
    "956": "68650a",
    "957": "6576656e20",
    "958": "6e6174",
    "959": "757265",
    "960": "77617920",
    "961": "686520697320",
    "962": "49206d75737420",
    "963": "6e6f742c20",
    "964": "6174696f6e",
    "965": "6661756c",
    "966": "63697479",
    "967": "436170",
    "968": "4361706974",
    "969": "43617069746f6c",
    "970": "636f6d65",
    "971": "74687920",
    "972": "7070",
    "973": "6f756768",
    "974": "616c6c2074686520",
    "975": "210a0a4d",
    "976": "626174",
    "977": "6273",
    "978": "7072617920",
    "979": "6e6f7720",
    "980": "73686f7720",
    "981": "27656d",
    "982": "706f",
    "983": "7374726f6e6720",
    "984": "5768",
    "985": "73746572",
    "986": "676f6f6420667269656e",
    "987": "6d696e",
    "988": "616c726561",
    "989": "0a4861",
    "990": "6d617920",
    "991": "747269",
    "992": "796f7572207374",
    "993": "6e64657220",
    "994": "6e6565",
    "995": "68697468657220",
    "996": "666174686572",
    "997": "656e656d",
    "998": "666f72207573",
    "999": "796574",
    "1000": "73746f72",
    "1001": "652d",
    "1002": "65730a",
    "1003": "6572733b20",
    "1004": "6f6d6520",
    "1005": "7261696e",
    "1006": "7761727320",
    "1007": "7468657265",
    "1008": "6f6e64",
    "1009": "0a4120",
    "1010": "74747920",
    "1011": "796f75206861766520",
    "1012": "686561726420",
    "1013": "73696e",
    "1014": "657276657320",
    "1015": "6c6974",
    "1016": "6c697474",
    "1017": "79657420",
    "1018": "6275742c20",
    "1019": "64656c69",
    "1020": "7768656e20",
    "1021": "6d656d626572",
    "1022": "696420",
    "1023": "0a4f6620",
    "1024": "62656c6c7920",
    "1025": "616e737765722764",
    "1026": "63616d",
    "1027": "74687573",
    "1028": "6c6f6f6b20",
    "1029": "0a417320",
    "1030": "79277320",
    "1031": "6f776e",
    "1032": "67696c",
    "1033": "736f6c",
    "1034": "627269",
    "1035": "2c0a57686f20",
    "1036": "2c2d2d0a0a",
    "1037": "666f726d",
    "1038": "796f75276c6c20",
    "1039": "657374",
    "1040": "726520",
    "1041": "736820",
    "1042": "616e64207468",
    "1043": "7265636569766520",
    "1044": "7468652067656e6572",
    "1045": "796f7520646f20",
    "1046": "66697420",
    "1047": "2c0a45",
    "1048": "696365",
    "1049": "657269",
    "1050": "686f75676820",
    "1051": "4920646f20",
    "1052": "6c6561766520",
    "1053": "497420",
    "1054": "0a546865",
    "1055": "7075",
    "1056": "42757420",
    "1057": "746f20796f75",
    "1058": "677265617420746f",
    "1059": "6573742c20",
    "1060": "27737420",
    "1061": "6966",
    "1062": "726174",
    "1063": "3b0a54686520",
    "1064": "61696c",
    "1065": "68617427732074686520",
    "1066": "686174277320746865206d6174746572",
    "1067": "4865207468617420",
    "1068": "686f72",
    "1069": "6d616b",
    "1070": "68616e20",
    "1071": "5570",
    "1072": "55706f6e20",
    "1073": "65732e20",
    "1074": "6b65657020",
    "1075": "65733b20",
    "1076": "7768657265",
    "1077": "6c696b6520746f20",
    "1078": "616374696f6e",
    "1079": "6d79206c",
    "1080": "3f0a0a4d4152434955533a0a",
    "1081": "68616e6720",
    "1082": "793b20",
    "1083": "436f72",
    "1084": "6c793a20",
    "1085": "706f77657220",
    "1086": "7720",
    "1087": "6f2c20",
    "1088": "657373656e",
    "1089": "657373656e67",
    "1090": "657373656e676572",
    "1091": "657373656e6765723a0a",
    "1092": "2e0a0a46697273742053656e61746f723a0a",
    "1093": "7468696e6720",
    "1094": "434f",
    "1095": "434f4d",
    "1096": "434f4d494e4955533a0a",
    "1097": "68616c6620",
    "1098": "656172",
    "1099": "77617273",
    "1100": "6974757320",
    "1101": "69747573204c",
    "1102": "69747573204c6172",
    "1103": "69747573204c61727469",
    "1104": "627573696e6573",
    "1105": "210a0a46697273742053656e61746f723a0a",
    "1106": "73686970",
    "1107": "666f727468",
    "1108": "6b276420",
    "1109": "2e0a0a4252555455533a0a",
    "1110": "656e7420",
    "1111": "61206d616e",
    "1112": "616c6f6e",
    "1113": "4175666964697573",
    "1114": "72756d",
    "1115": "646f75",
    "1116": "646f7562",
    "1117": "7768656e",
    "1118": "4661726577656c6c",
    "1119": "68757362",
    "1120": "68652077617320",
    "1121": "64617920",
    "1122": "62726f77",
    "1123": "6368696c",
    "1124": "766973",
    "1125": "766973697420",
    "1126": "486563",
    "1127": "6f726420",
    "1128": "4120",
    "1129": "3f0a0a56",
    "1130": "2c20676f6f64206d6164616d",
    "1131": "6f76657220",
    "1132": "2e0a0a56495247494c49413a0a4e6f",
    "1133": "646f6f72",
    "1134": "676f207769746820",
    "1135": "2e0a0a4c",
    "1136": "2e0a0a4c4152",
    "1137": "2e0a0a4c415254",
    "1138": "2e0a0a4c4152544955533a0a",
    "1139": "77652070726f63",
    "1140": "706561",
    "1141": "6b2c20",
    "1142": "596f752061726520",
    "1143": "64696520",
    "1144": "746f2066616d",
    "1145": "746f2066616d69",
    "1146": "746f2066616d697368",
    "1147": "4361697573204d61726369757320",
    "1148": "656620",
    "1149": "656e65",
    "1150": "7765276c6c20",
    "1151": "636f726e20",
    "1152": "636f726e20617420",
    "1153": "707269",
    "1154": "2774206120",
    "1155": "646963",
    "1156": "4e6f20",
    "1157": "6c657420697420",
    "1158": "646f6e65",
    "1159": "5365636f6e6420436974697a656e3a0a",
    "1160": "4f6e6520",
    "1161": "636974697a656e",
    "1162": "6163636f756e",
    "1163": "74656420",
    "1164": "6f6f7220",
    "1165": "74686f72",
    "1166": "7375726665",
    "1167": "69747320",
    "1168": "72656c69",
    "1169": "72656c6965",
    "1170": "3a20696620",
    "1171": "6275742074686520",
    "1172": "7375706572",
    "1173": "737570657266",
    "1174": "7375706572666c75",
    "1175": "6974792c20",
    "1176": "77686f6c6573",
    "1177": "6f6d652c20",
    "1178": "6d6967687420",
    "1179": "77652061726520",
    "1180": "6e65737320",
    "1181": "6c6963",
    "1182": "6a6563",
    "1183": "6d6973",
    "1184": "616e0a",
    "1185": "756c6172",
    "1186": "616275",
    "1187": "6162756e64",
    "1188": "66666572",
    "1189": "616e636520",
    "1190": "726576656e",
    "1191": "77697468",
    "1192": "776974680a",
    "1193": "6b65732c20",
    "1194": "6265636f6d6520",
    "1195": "68756e67657220",
    "1196": "6e6f7420696e20",
    "1197": "616c6c7920",
    "1198": "6761696e737420",
    "1199": "66697273743a20",
    "1200": "6865277320",
    "1201": "616c74",
    "1202": "436f6e736964",
    "1203": "436f6e736964657220",
    "1204": "666f722068697320",
    "1205": "666f722068697320636f756e7472",
    "1206": "793f0a0a466972737420436974697a656e3a0a",
    "1207": "566572",
    "1208": "636f756c6420626520",
    "1209": "636f6e74656e",
    "1210": "636f6e74656e7420746f20",
    "1211": "7265706f727420",
    "1212": "68696d73656c",
    "1213": "68696d73656c6620",
    "1214": "6d616c696369",
    "1215": "6d616c6963696f7573",
    "1216": "6865206861746820",
    "1217": "6865206469",
    "1218": "656e64",
    "1219": "6f6674",
    "1220": "6d656e20",
    "1221": "68652064696420",
    "1222": "746f0a",
    "1223": "6d6f7468657220",
    "1224": "616e6420746f20",
    "1225": "3b20776869636820",
    "1226": "65206f6620",
    "1227": "766972",
    "1228": "7669727475",
    "1229": "63616e6e6f7420",
    "1230": "6e6174757265",
    "1231": "636520696e20",
    "1232": "6e6f2077617920",
    "1233": "617272",
    "1234": "6661756c74",
    "1235": "746972",
    "1236": "7469726520",
    "1237": "706574697469",
    "1238": "3f2054686520",
    "1239": "636974790a",
    "1240": "77687920",
    "1241": "7374617920",
    "1242": "696e672068657265",
    "1243": "696e6720686572653f20",
    "1244": "746f207468652043617069746f6c",
    "1245": "4167",
    "1246": "4865",
    "1247": "686f6e65737420",
    "1248": "656e6f756768",
    "1249": "736f",
    "1250": "454e454e4955533a0a5768617420",
    "1251": "27732c20",
    "1252": "656e2c20",
    "1253": "6261747320616e6420",
    "1254": "6261747320616e642063",
    "1255": "6261747320616e6420636c75",
    "1256": "6261747320616e6420636c756273",
    "1257": "7072617920796f75",
    "1258": "4f757220",
    "1259": "3b207468657920",
    "1260": "6e69",
    "1261": "546865792073617920",
    "1262": "706f6f72",
    "1263": "68617665207374726f6e6720",
    "1264": "746873",
    "1265": "5768792c20",
    "1266": "6d6173746572",
    "1267": "6d7920676f6f6420667269656e",
    "1268": "6d696e6520",
    "1269": "626f7572",
    "1270": "796f757273656c766573",
    "1271": "3f0a0a466972737420436974697a656e3a0a576520",
    "1272": "7369722c20",
    "1273": "616c7265616479",
    "1274": "2e20466f7220",
    "1275": "732c0a",
    "1276": "696e207468697320",
    "1277": "646561727468",
    "1278": "6b6520617420",
    "1279": "526f6d616e20",
    "1280": "73746174652c20",
    "1281": "77686f736520",
    "1282": "636f7572",
    "1283": "6974207461",
    "1284": "637261",
    "1285": "637261636b",
    "1286": "656e2074686f75",
    "1287": "6c696e",
    "1288": "65766572",
    "1289": "676f64732c20",
    "1290": "616e640a",
    "1291": "6b6e6565",
    "1292": "7320746f20",
    "1293": "7468656d2c20",
    "1294": "68656c70",
    "1295": "63616c",
    "1296": "6d6f7265206174",
    "1297": "6c616e64",
    "1298": "6d7320",
    "1299": "2c0a5768656e20",
    "1300": "637572736520",
    "1301": "212054",
    "1302": "2120547275",
    "1303": "696e646565",
    "1304": "21205468657920",
    "1305": "6e6527",
    "1306": "6e6527657220",
    "1307": "636172",
    "1308": "73746f72652d",
    "1309": "73746f72652d686f75",
    "1310": "6d656420",
    "1311": "65616c",
    "1312": "65616c20",
    "1313": "6461696c",
    "1314": "68656420",
    "1315": "616761696e73742074686520",
    "1316": "72657374",
    "1317": "726573747261696e",
    "1318": "74686520706f",
    "1319": "75702c20",
    "1320": "6c6f",
    "1321": "6d7573",
    "1322": "740a436f6e",
    "1323": "65737320796f757273656c",
    "1324": "776f6e64",
    "1325": "2c0a4f7220",
    "1326": "6163637573656420",
    "1327": "666f6c6c79",
    "1328": "7368616c6c2074656c6c20796f75",
    "1329": "70726574747920",
    "1330": "74616c65",
    "1331": "74616c653a20",
    "1332": "4275742c20",
    "1333": "6c6974746c6520",
    "1334": "796f75206d75737420",
    "1335": "706c65617365",
    "1336": "7468652062656c6c792c20",
    "1337": "3a0a54",
    "1338": "0a49",
    "1339": "69646c6520",
    "1340": "617264",
    "1341": "696e672074686520",
    "1342": "616e642c20",
    "1343": "6e6576657220",
    "1344": "62656172",
    "1345": "696e670a",
    "1346": "4c69",
    "1347": "4c696b6520",
    "1348": "746865206f7468657220",
    "1349": "696e7374",
    "1350": "696e73747275",
    "1351": "730a44",
    "1352": "666565",
    "1353": "416e642c20",
    "1354": "6170706574",
    "1355": "61707065746974",
    "1356": "6520616e6420",
    "1357": "6166666563",
    "1358": "0a4f662074686520",
    "1359": "0a4f66207468652077686f6c",
    "1360": "0a4f66207468652077686f6c6520",
    "1361": "0a4f66207468652077686f6c6520626f6479",
    "1362": "616e7377657220",
    "1363": "536972",
    "1364": "696e6420",
    "1365": "736d69",
    "1366": "736d696c65",
    "1367": "2c0a576869636820",
    "1368": "63616d6520",
    "1369": "66726f6d2074686520",
    "1370": "2d2d0a",
    "1371": "466f72",
    "1372": "7468652062656c6c7920",
    "1373": "756e74",
    "1374": "0a546f2074686520",
    "1375": "636f6e74",
    "1376": "746865206d7574696e",
    "1377": "746865206d7574696e6f757320",
    "1378": "0a5468617420",
    "1379": "7265636569",
    "1380": "73656e61746f72",
    "1381": "7375636820617320",
    "1382": "79277320616e73776572",
    "1383": "3f2057",
    "1384": "210a54686520",
    "1385": "68656172742c20",
    "1386": "2c0a4f757220",
    "1387": "746865206c65",
    "1388": "62726963",
    "1389": "77686174207468656e",
    "1390": "77686174207468656e3f0a0a466972737420436974697a656e3a0a",
    "1391": "686f756c6420",
    "1392": "2c0a57686f20697320",
    "1393": "666f726d657220",
    "1394": "6167",
    "1395": "636f6d706c61",
    "1396": "636f6d706c61696e",
    "1397": "2c0a5768617420",
    "1398": "74656c6c20796f750a",
    "1399": "736d61",
    "1400": "5965",
    "1401": "6f757420",
    "1402": "643b0a",
    "1403": "4e6f7420",
    "1404": "64732c",
    "1405": "2c0a2754",
    "1406": "7468652067656e6572616c20",
    "1407": "666f6f",
    "1408": "75736520",
    "1409": "616e642074686520",
    "1410": "2c0a4920",
    "1411": "746872",
    "1412": "7468726f75",
    "1413": "7468726f75676820",
    "1414": "7468726f7567682074686520",
    "1415": "73206f6620796f757220",
    "1416": "626c6f6f64",
    "1417": "616e6b",
    "1418": "6f6666",
    "1419": "7374726f6e67",
    "1420": "76657320616e6420",
    "1421": "46726f6d20",
    "1422": "46726f6d206d6520",
    "1423": "616c6c20617420",
    "1424": "616c6c206174206f6e",
    "1425": "2c0a596f75",
    "1426": "7361797320",
    "1427": "6d6172",
    "1428": "3b2077656c6c",
    "1429": "656520",
    "1430": "2c0a59",
    "1431": "2c0a59657420",
    "1432": "616c6c0a",
    "1433": "666c",
    "1434": "526f6d652061726520",
    "1435": "636f756e73656c",
    "1436": "7468696e67",
    "1437": "7468696e677320",
    "1438": "72696768",
    "1439": "2e205768617420",
    "1440": "646f20796f7520",
    "1441": "74686520677265617420746f",
    "1442": "74686520677265617420746f65",
    "1443": "3f0a0a4d454e454e4955533a0a466f7220",
    "1444": "2c0a4f6620",
    "1445": "74686f7520",
    "1446": "666f7265",
    "1447": "61727420",
    "1448": "7261747320",
    "1449": "2e2057686174277320746865206d6174746572",
    "1450": "6861742c20",
    "1451": "796f7572206f70",
    "1452": "796f7572206f70696e69",
    "1453": "6f6e2c0a",
    "1454": "6f6e2c0a4d",
    "1455": "616b6520",
    "1456": "676f6f6420776f72",
    "1457": "0a42",
    "1458": "2e204865207468617420",
    "1459": "66696e6420",
    "1460": "6c696f6e",
    "1461": "796f752068",
    "1462": "6865726520",
    "1463": "796f752061726520",
    "1464": "636f",
    "1465": "73746f6e6520",
    "1466": "776f7274687920",
    "1467": "63652064696420",
    "1468": "646573",
    "1469": "6e6573",
    "1470": "796f757220686174",
    "1471": "796f75722068617465",
    "1472": "0a576869636820",
    "1473": "76696c",
    "1474": "6f61",
    "1475": "6f616b",
    "1476": "48616e6720",
    "1477": "616e676520",
    "1478": "63616c6c20",
    "1479": "746861742077617320",
    "1480": "676172",
    "1481": "63727920",
    "1482": "556e64657220",
    "1483": "796f7520696e20",
    "1484": "0a576f756c6420",
    "1485": "6f74686572",
    "1486": "7468656972206f776e20",
    "1487": "74686579207361",
    "1488": "65642e0a0a4d4152434955533a0a",
    "1489": "0a54686579",
    "1490": "652c20616e6420",
    "1491": "6e6f62",
    "1492": "6e6f62696c",
    "1493": "6c617920",
    "1494": "6c61792061",
    "1495": "6c617920617369646520",
    "1496": "6d792073",
    "1497": "74686573652061726520",
    "1498": "616c6d6f737420",
    "1499": "636f77",
    "1500": "65736565",
    "1501": "65736565636820",
    "1502": "6f6b6520",
    "1503": "732c207468617420",
    "1504": "73656e7420",
    "1505": "6772616e74",
    "1506": "6772616e74656420",
    "1507": "6f73",
    "1508": "6974792c0a416e6420",
    "1509": "74687265",
    "1510": "417320",
    "1511": "6d6f6f6e",
    "1512": "7472696275",
    "1513": "74726962756e",
    "1514": "74726962756e657320",
    "1515": "727574",
    "1516": "73686f756c64206861766520",
    "1517": "2c0a45726520",
    "1518": "70726576",
    "1519": "7072657661696c",
    "1520": "68697320697320",
    "1521": "726167",
    "1522": "3f0a0a4d657373656e6765723a0a",
    "1523": "6e65777320",
    "1524": "2c2074686520566f6c7363657320",
    "1525": "61726520696e20",
    "1526": "61726520696e2061726d",
    "1527": "61726520696e2061726d73",
    "1528": "61726520696e2061726d732e0a0a4d4152434955533a0a",
    "1529": "4920616d2067",
    "1530": "4920616d20676c61",
    "1531": "64206f6e20",
    "1532": "7468656e20",
    "1533": "7765207368616c6c20",
    "1534": "6974792e20",
    "1535": "656c64"
  },
  "stoi": {
    "[PAD]": 256,
    "[BOS]": 257,
    "[EOS]": 258,
    "[SYSTEM]": 259,
    "[USER]": 260,
    "[ASSISTANT]": 261,
    "[THOUGHT]": 262,
    "\u0000": 0,
    "\u0001": 1,
    "\u0002": 2,
    "\u0003": 3,
    "\u0004": 4,
    "\u0005": 5,
    "\u0006": 6,
    "\u0007": 7,
    "\b": 8,
    "\t": 9,
    "\n": 10,
    "\u000b": 11,
    "\f": 12,
    "\r": 13,
    "\u000e": 14,
    "\u000f": 15,
    "\u0010": 16,
    "\u0011": 17,
    "\u0012": 18,
    "\u0013": 19,
    "\u0014": 20,
    "\u0015": 21,
    "\u0016": 22,
    "\u0017": 23,
    "\u0018": 24,
    "\u0019": 25,
    "\u001a": 26,
    "\u001b": 27,
    "\u001c": 28,
    "\u001d": 29,
    "\u001e": 30,
    "\u001f": 31,
    " ": 32,
    "!": 33,
    "\"": 34,
    "#": 35,
    "$": 36,
    "%": 37,
    "&": 38,
    "'": 39,
    "(": 40,
    ")": 41,
    "*": 42,
    "+": 43,
    ",": 44,
    "-": 45,
    ".": 46,
    "/": 47,
    "0": 48,
    "1": 49,
    "2": 50,
    "3": 51,
    "4": 52,
    "5": 53,
    "6": 54,
    "7": 55,
    "8": 56,
    "9": 57,
    ":": 58,
    ";": 59,
    "<": 60,
    "=": 61,
    ">": 62,
    "?": 63,
    "@": 64,
    "A": 65,
    "B": 66,
    "C": 67,
    "D": 68,
    "E": 69,
    "F": 70,
    "G": 71,
    "H": 72,
    "I": 73,
    "J": 74,
    "K": 75,
    "L": 76,
    "M": 77,
    "N": 78,
    "O": 79,
    "P": 80,
    "Q": 81,
    "R": 82,
    "S": 83,
    "T": 84,
    "U": 85,
    "V": 86,
    "W": 87,
    "X": 88,
    "Y": 89,
    "Z": 90,
    "[": 91,
    "\\": 92,
    "]": 93,
    "^": 94,
    "_": 95,
    "`": 96,
    "a": 97,
    "b": 98,
    "c": 99,
    "d": 100,
    "e": 101,
    "f": 102,
    "g": 103,
    "h": 104,
    "i": 105,
    "j": 106,
    "k": 107,
    "l": 108,
    "m": 109,
    "n": 110,
    "o": 111,
    "p": 112,
    "q": 113,
    "r": 114,
    "s": 115,
    "t": 116,
    "u": 117,
    "v": 118,
    "w": 119,
    "x": 120,
    "y": 121,
    "z": 122,
    "{": 123,
    "|": 124,
    "}": 125,
    "~": 126,
    "\u007f": 127,
    "\ufffd": 255,
    "e ": 263,
    "th": 264,
    "t ": 265,
    "s ": 266,
    "ou": 267,
    ", ": 268,
    "d ": 269,
    "r ": 270,
    "in": 271,
    "an": 272,
    "en": 273,
    ":\n": 274,
    "y ": 275,
    "\n\n": 276,
    "er": 277,
    "on": 278,
    "ll": 279,
    "ar": 280,
    "the ": 281,
    "you": 282,
    "o ": 283,
    "ha": 284,
    "or": 285,
    ".\n\n": 286,
    "es": 287,
    ",\n": 288,
    "it": 289,
    "is ": 290,
    "ea": 291,
    "ll ": 292,
    "st ": 293,
    "the": 294,
    "no": 295,
    "om": 296,
    "f ": 297,
    "ir": 298,
    "I ": 299,
    "us": 300,
    "to ": 301,
    "US": 302,
    "US:\n": 303,
    "he ": 304,
    "and ": 305,
    "at": 306,
    "you ": 307,
    "; ": 308,
    "hi": 309,
    "IUS:\n": 310,
    "he": 311,
    "ing": 312,
    "in ": 313,
    "wi": 314,
    "st": 315,
    ". ": 316,
    "ow": 317,
    "re": 318,
    "oo": 319,
    ": ": 320,
    "it ": 321,
    "th ": 322,
    "ve": 323,
    "ve ": 324,
    "al": 325,
    "IA": 326,
    "IA:\n": 327,
    "or ": 328,
    "h ": 329,
    "ee": 330,
    "ma": 331,
    "di": 332,
    "at ": 333,
    "EN": 334,
    "irst ": 335,
    "us ": 336,
    "a ": 337,
    "hat ": 338,
    "of ": 339,
    "be": 340,
    "ld ": 341,
    "\nT": 342,
    "iti": 343,
    "se": 344,
    "zen": 345,
    ".\n\nV": 346,
    "itizen": 347,
    "an ": 348,
    "ri": 349,
    "li": 350,
    "wh": 351,
    "your ": 352,
    "First ": 353,
    "our ": 354,
    "ce": 355,
    "Citizen": 356,
    "Citizen:\n": 357,
    "am": 358,
    "s, ": 359,
    "pr": 360,
    "?\n\n": 361,
    "ing ": 362,
    "on ": 363,
    "er ": 364,
    "are ": 365,
    "wa": 366,
    "'s ": 367,
    "his ": 368,
    "ke ": 369,
    "ci": 370,
    "n ": 371,
    "ould ": 372,
    "not ": 373,
    "en ": 374,
    "y, ": 375,
    "\nW": 376,
    "e, ": 377,
    "ti": 378,
    "ch ": 379,
    "ed ": 380,
    "su": 381,
    "bu": 382,
    "that ": 383,
    "First Citizen:\n": 384,
    "my ": 385,
    "t, ": 386,
    "k ": 387,
    "ere ": 388,
    "mo": 389,
    "la": 390,
    "ol": 391,
    "com": 392,
    "for ": 393,
    "rea": 394,
    "with ": 395,
    "bl": 396,
    "him": 397,
    "we": 398,
    "have ": 399,
    "d, ": 400,
    "goo": 401,
    "' ": 402,
    "ru": 403,
    "ra": 404,
    "gh": 405,
    ".\n\nM": 406,
    "for": 407,
    "they ": 408,
    "one ": 409,
    "mu": 410,
    "An": 411,
    "Mar": 412,
    "le": 413,
    "ec": 414,
    "ce ": 415,
    "ENEN": 416,
    "ENENIUS:\n": 417,
    "ow ": 418,
    ",\nT": 419,
    "AR": 420,
    "sp": 421,
    "ther ": 422,
    "sh": 423,
    "Marci": 424,
    "good ": 425,
    "ir ": 426,
    "And ": 427,
    "now": 428,
    "be ": 429,
    "wor": 430,
    "their ": 431,
    "this ": 432,
    "un": 433,
    "sen": 434,
    "s\n": 435,
    "il": 436,
    "IR": 437,
    "IRG": 438,
    "IRGI": 439,
    "IRGIL": 440,
    "IRGILIA:\n": 441,
    "pe": 442,
    "ere": 443,
    "de": 444,
    "ent": 445,
    "d\n": 446,
    "sa": 447,
    "es ": 448,
    "mad": 449,
    "ARC": 450,
    "ARCIUS:\n": 451,
    "we ": 452,
    "me ": 453,
    "ac": 454,
    "but ": 455,
    "is": 456,
    "ga": 457,
    "id": 458,
    "ly ": 459,
    "sha": 460,
    "up": 461,
    "'d ": 462,
    ".\n\nVIRGILIA:\n": 463,
    "ur": 464,
    ".\n\nFirst Citizen:\n": 465,
    "all ": 466,
    "'ll ": 467,
    "mor": 468,
    "!\n\n": 469,
    "as ": 470,
    "se ": 471,
    "? ": 472,
    "Com": 473,
    "em": 474,
    "will ": 475,
    "bell": 476,
    "--": 477,
    "om ": 478,
    "AL": 479,
    "ALE": 480,
    "ALER": 481,
    "ALERIA:\n": 482,
    "know": 483,
    "cou": 484,
    "would ": 485,
    "them": 486,
    "g ": 487,
    "sel": 488,
    "was ": 489,
    "ter": 490,
    "hey ": 491,
    ",\nW": 492,
    "most ": 493,
    "ch": 494,
    "Rom": 495,
    "t\n": 496,
    "bo": 497,
    ".\n\nVALERIA:\n": 498,
    "ther": 499,
    "'t": 500,
    "et ": 501,
    "ver": 502,
    "to": 503,
    "par": 504,
    "go": 505,
    "ds ": 506,
    ".\n\nS": 507,
    "gain": 508,
    "him ": 509,
    "what ": 510,
    "well": 511,
    "ten": 512,
    "thou": 513,
    "hich ": 514,
    "fa": 515,
    "do ": 516,
    "dy": 517,
    "ta": 518,
    "ini": 519,
    "rom ": 520,
    "ator": 521,
    "OL": 522,
    "OLU": 523,
    "OLUM": 524,
    "OLUMN": 525,
    "OLUMNIA:\n": 526,
    "ear ": 527,
    "than ": 528,
    ", and ": 529,
    "coun": 530,
    "man": 531,
    "ly": 532,
    "thin": 533,
    "ff": 534,
    "our": 535,
    "Marcius": 536,
    "tr": 537,
    "gh ": 538,
    "lea": 539,
    "must ": 540,
    "ove": 541,
    "' the ": 542,
    "! ": 543,
    "est ": 544,
    ", I ": 545,
    "shall ": 546,
    ".\n\nMENENIUS:\n": 547,
    "ne": 548,
    "ble ": 549,
    "s of ": 550,
    "\nTo ": 551,
    "sw": 552,
    "?\n\nM": 553,
    "hat": 554,
    ".\n\nMARCIUS:\n": 555,
    "IN": 556,
    "INIUS:\n": 557,
    "madam": 558,
    "spea": 559,
    ".\n": 560,
    "ght ": 561,
    "ess ": 562,
    ";\n": 563,
    "nd": 564,
    "again": 565,
    "con": 566,
    "ive ": 567,
    "did ": 568,
    "The ": 569,
    "hon": 570,
    "were ": 571,
    "ds": 572,
    "ck": 573,
    "make ": 574,
    "da": 575,
    "war": 576,
    "hear": 577,
    "answ": 578,
    "from ": 579,
    "No": 580,
    ",\nAnd ": 581,
    "Sen": 582,
    "Senator": 583,
    "Senator:\n": 584,
    "fi": 585,
    "TUS:\n": 586,
    "All": 587,
    "All:\n": 588,
    "You": 589,
    "Ca": 590,
    "to the ": 591,
    "op": 592,
    "own ": 593,
    "more ": 594,
    "econ": 595,
    "econd ": 596,
    "ul": 597,
    "do": 598,
    "sid": 599,
    "; and ": 600,
    "What ": 601,
    "thes": 602,
    "o' the ": 603,
    "ity": 604,
    "go ": 605,
    "s and ": 606,
    "They ": 607,
    "str": 608,
    "your": 609,
    "ell ": 610,
    "\nA": 611,
    "by ": 612,
    "hou": 613,
    "ers": 614,
    "dis": 615,
    "then": 616,
    "fin": 617,
    "grea": 618,
    "dy ": 619,
    "el": 620,
    "pro": 621,
    ", you ": 622,
    "ius ": 623,
    "Marcius ": 624,
    ".\nW": 625,
    "if ": 626,
    "le ": 627,
    "ts ": 628,
    "t of ": 629,
    "es, ": 630,
    "vi": 631,
    "ces ": 632,
    "?\n\nFirst Citizen:\n": 633,
    "ay, ": 634,
    "can ": 635,
    "which ": 636,
    "no ": 637,
    "had ": 638,
    "arm": 639,
    "Your ": 640,
    "\nThe ": 641,
    "like ": 642,
    ",\nO": 643,
    "pre": 644,
    "tt": 645,
    "ver ": 646,
    "answer": 647,
    "'T": 648,
    "al ": 649,
    "me": 650,
    "br": 651,
    "upon ": 652,
    "tion": 653,
    "these ": 654,
    "First Senator:\n": 655,
    "IC": 656,
    "ICINIUS:\n": 657,
    "BR": 658,
    "BRU": 659,
    "BRUTUS:\n": 660,
    "You ": 661,
    "res": 662,
    "know ": 663,
    "econd Citizen:\n": 664,
    "the p": 665,
    "lu": 666,
    "that": 667,
    "us, ": 668,
    "them ": 669,
    "ge": 670,
    "fir": 671,
    "prou": 672,
    "ali": 673,
    "ous": 674,
    "say ": 675,
    "ven ": 676,
    "p ": 677,
    "other ": 678,
    "here": 679,
    "and": 680,
    "ith ": 681,
    "d to ": 682,
    "fri": 683,
    "frien": 684,
    "yoursel": 685,
    "tell ": 686,
    "are": 687,
    "For ": 688,
    "ant": 689,
    "ves ": 690,
    ",\nWh": 691,
    "ye": 692,
    "fo": 693,
    "ll, ": 694,
    "I'll ": 695,
    "the bell": 696,
    "\nO": 697,
    "so ": 698,
    "tru": 699,
    "In ": 700,
    "I am": 701,
    "bloo": 702,
    "how ": 703,
    "her ": 704,
    ",\nThat ": 705,
    "ang ": 706,
    "Au": 707,
    "Aufi": 708,
    "Aufidi": 709,
    "Comini": 710,
    ".\n\nVOLUMNIA:\n": 711,
    "eed, ": 712,
    "she ": 713,
    "eed ": 714,
    "hear ": 715,
    "speak": 716,
    "Caius ": 717,
    "cor": 718,
    "let ": 719,
    "one": 720,
    "word, ": 721,
    "sur": 722,
    "fe": 723,
    "gu": 724,
    "all": 725,
    "ys ": 726,
    "you, ": 727,
    "though ": 728,
    "of": 729,
    "tu": 730,
    "a\n": 731,
    "If ": 732,
    "cus": 733,
    "ati": 734,
    "side ": 735,
    "ay ": 736,
    "love": 737,
    "atter": 738,
    "ur ": 739,
    "stron": 740,
    "ds, ": 741,
    "sir": 742,
    "\nH": 743,
    "\nS": 744,
    "im": 745,
    ",\nThe ": 746,
    "it, ": 747,
    "ind": 748,
    "cr": 749,
    "gra": 750,
    ". I ": 751,
    "Bu": 752,
    "emb": 753,
    ",\nS": 754,
    "see ": 755,
    "ap": 756,
    "'d": 757,
    "--\n\n": 758,
    "?\n\nMENENIUS:\n": 759,
    ". W": 760,
    "loo": 761,
    "rece": 762,
    "ant ": 763,
    ", the ": 764,
    "by the ": 765,
    "pla": 766,
    "I will ": 767,
    "ab": 768,
    "gen": 769,
    "gener": 770,
    "I am ": 771,
    "not\n": 772,
    "Rome ": 773,
    "think": 774,
    "hat's ": 775,
    "He ": 776,
    "should ": 777,
    "in the ": 778,
    "si": 779,
    "ck ": 780,
    "forth ": 781,
    "pow": 782,
    "Vol": 783,
    "Vols": 784,
    "Volsces ": 785,
    "'tis ": 786,
    "us.\n\n": 787,
    ".\n\nSICINIUS:\n": 788,
    "honour": 789,
    "VOLUMNIA:\n": 790,
    "son": 791,
    ", good ": 792,
    "Be": 793,
    "proc": 794,
    "any ": 795,
    ".\n\nAll:\n": 796,
    "olve": 797,
    "fam": 798,
    "chi": 799,
    "peop": 800,
    "We ": 801,
    "Let ": 802,
    "ill ": 803,
    "au": 804,
    "ity ": 805,
    "y\n": 806,
    "per": 807,
    "whol": 808,
    "mi": 809,
    "think ": 810,
    "dear": 811,
    ": the ": 812,
    "aff": 813,
    "vent": 814,
    "ven": 815,
    "pi": 816,
    "for the ": 817,
    "speak ": 818,
    "hun": 819,
    "ger ": 820,
    "brea": 821,
    ".\n\nSecond Citizen:\n": 822,
    "against ": 823,
    "comm": 824,
    "Con": 825,
    "has ": 826,
    "done ": 827,
    "countr": 828,
    "could ": 829,
    "t to ": 830,
    "give ": 831,
    "rep": 832,
    "Nay, ": 833,
    "is, ": 834,
    "till ": 835,
    "can": 836,
    "hel": 837,
    "accus": 838,
    "pet": 839,
    "Come, ": 840,
    "who ": 841,
    "comes ": 842,
    "where ": 843,
    "\nWith ": 844,
    "matter": 845,
    "bus": 846,
    "busin": 847,
    "is not ": 848,
    "ate": 849,
    "ve\n": 850,
    "ves": 851,
    "hea": 852,
    "ate, ": 853,
    "who": 854,
    "cur": 855,
    "ment": 856,
    "more": 857,
    "ut": 858,
    "eat ": 859,
    "ous ": 860,
    "foll": 861,
    "tell you": 862,
    "ale": 863,
    "We": 864,
    "Well, ": 865,
    "Th": 866,
    "body": 867,
    "memb": 868,
    "only ": 869,
    "made ": 870,
    "well ": 871,
    "ed": 872,
    "mut": 873,
    "mutin": 874,
    "\nThey ": 875,
    "such ": 876,
    "king": 877,
    "ence ": 878,
    "qu": 879,
    "it is": 880,
    "ex": 881,
    "their c": 882,
    "\nAnd ": 883,
    "great ": 884,
    "as": 885,
    "first ": 886,
    "noble ": 887,
    "ever ": 888,
    "nor ": 889,
    "er, ": 890,
    "great": 891,
    "down ": 892,
    "kee": 893,
    "see": 894,
    "pres": 895,
    "tur": 896,
    "gr": 897,
    "not": 898,
    "new": 899,
    "hal": 900,
    ". T": 901,
    "shi": 902,
    "tter ": 903,
    "out of ": 904,
    "AU": 905,
    "AUF": 906,
    "AUFI": 907,
    "AUFID": 908,
    "AUFIDIUS:\n": 909,
    "Rome": 910,
    "af": 911,
    "arewell": 912,
    "hus": 913,
    "madam; ": 914,
    "Ind": 915,
    "Indeed, ": 916,
    "!\n\nVOLUMNIA:\n": 917,
    "lady": 918,
    "fore ": 919,
    "rather ": 920,
    "?\n\nAll:\n": 921,
    "olved": 922,
    "people": 923,
    "Let us ": 924,
    "'t ": 925,
    "way, ": 926,
    "ne ": 927,
    "the pat": 928,
    "the patri": 929,
    "the patrici": 930,
    "the patrician": 931,
    ".\nWhat ": 932,
    "whi": 933,
    "ob": 934,
    "parti": 935,
    "ance": 936,
    "\nsu": 937,
    "ge ": 938,
    "come ": 939,
    "gods ": 940,
    "I\n": 941,
    "Caius Marcius": 942,
    "first": 943,
    "very ": 944,
    "common": 945,
    "good\n": 946,
    "ort ": 947,
    "being ": 948,
    "proud": 949,
    "mali": 950,
    "hath ": 951,
    "ence": 952,
    "plea": 953,
    "se his ": 954,
    "part": 955,
    "he\n": 956,
    "even ": 957,
    "nat": 958,
    "ure": 959,
    "way ": 960,
    "he is ": 961,
    "I must ": 962,
    "not, ": 963,
    "ation": 964,
    "faul": 965,
    "city": 966,
    "Cap": 967,
    "Capit": 968,
    "Capitol": 969,
    "come": 970,
    "thy ": 971,
    "pp": 972,
    "ough": 973,
    "all the ": 974,
    "!\n\nM": 975,
    "bat": 976,
    "bs": 977,
    "pray ": 978,
    "now ": 979,
    "show ": 980,
    "'em": 981,
    "po": 982,
    "strong ": 983,
    "Wh": 984,
    "ster": 985,
    "good frien": 986,
    "min": 987,
    "alrea": 988,
    "\nHa": 989,
    "may ": 990,
    "tri": 991,
    "your st": 992,
    "nder ": 993,
    "nee": 994,
    "hither ": 995,
    "father": 996,
    "enem": 997,
    "for us": 998,
    "yet": 999,
    "stor": 1000,
    "e-": 1001,
    "es\n": 1002,
    "ers; ": 1003,
    "ome ": 1004,
    "rain": 1005,
    "wars ": 1006,
    "there": 1007,
    "ond": 1008,
    "\nA ": 1009,
    "tty ": 1010,
    "you have ": 1011,
    "heard ": 1012,
    "sin": 1013,
    "erves ": 1014,
    "lit": 1015,
    "litt": 1016,
    "yet ": 1017,
    "but, ": 1018,
    "deli": 1019,
    "when ": 1020,
    "member": 1021,
    "id ": 1022,
    "\nOf ": 1023,
    "belly ": 1024,
    "answer'd": 1025,
    "cam": 1026,
    "thus": 1027,
    "look ": 1028,
    "\nAs ": 1029,
    "y's ": 1030,
    "own": 1031,
    "gil": 1032,
    "sol": 1033,
    "bri": 1034,
    ",\nWho ": 1035,
    ",--\n\n": 1036,
    "form": 1037,
    "you'll ": 1038,
    "est": 1039,
    "re ": 1040,
    "sh ": 1041,
    "and th": 1042,
    "receive ": 1043,
    "the gener": 1044,
    "you do ": 1045,
    "fit ": 1046,
    ",\nE": 1047,
    "ice": 1048,
    "eri": 1049,
    "hough ": 1050,
    "I do ": 1051,
    "leave ": 1052,
    "It ": 1053,
    "\nThe": 1054,
    "pu": 1055,
    "But ": 1056,
    "to you": 1057,
    "great to": 1058,
    "est, ": 1059,
    "'st ": 1060,
    "if": 1061,
    "rat": 1062,
    ";\nThe ": 1063,
    "ail": 1064,
    "hat's the ": 1065,
    "hat's the matter": 1066,
    "He that ": 1067,
    "hor": 1068,
    "mak": 1069,
    "han ": 1070,
    "Up": 1071,
    "Upon ": 1072,
    "es. ": 1073,
    "keep ": 1074,
    "es; ": 1075,
    "where": 1076,
    "like to ": 1077,
    "action": 1078,
    "my l": 1079,
    "?\n\nMARCIUS:\n": 1080,
    "hang ": 1081,
    "y; ": 1082,
    "Cor": 1083,
    "ly: ": 1084,
    "power ": 1085,
    "w ": 1086,
    "o, ": 1087,
    "essen": 1088,
    "esseng": 1089,
    "essenger": 1090,
    "essenger:\n": 1091,
    ".\n\nFirst Senator:\n": 1092,
    "thing ": 1093,
    "CO": 1094,
    "COM": 1095,
    "COMINIUS:\n": 1096,
    "half ": 1097,
    "ear": 1098,
    "wars": 1099,
    "itus ": 1100,
    "itus L": 1101,
    "itus Lar": 1102,
    "itus Larti": 1103,
    "busines": 1104,
    "!\n\nFirst Senator:\n": 1105,
    "ship": 1106,
    "forth": 1107,
    "k'd ": 1108,
    ".\n\nBRUTUS:\n": 1109,
    "ent ": 1110,
    "a man": 1111,
    "alon": 1112,
    "Aufidius": 1113,
    "rum": 1114,
    "dou": 1115,
    "doub": 1116,
    "when": 1117,
    "Farewell": 1118,
    "husb": 1119,
    "he was ": 1120,
    "day ": 1121,
    "brow": 1122,
    "chil": 1123,
    "vis": 1124,
    "visit ": 1125,
    "Hec": 1126,
    "ord ": 1127,
    "A ": 1128,
    "?\n\nV": 1129,
    ", good madam": 1130,
    "over ": 1131,
    ".\n\nVIRGILIA:\nNo": 1132,
    "door": 1133,
    "go with ": 1134,
    ".\n\nL": 1135,
    ".\n\nLAR": 1136,
    ".\n\nLART": 1137,
    ".\n\nLARTIUS:\n": 1138,
    "we proc": 1139,
    "pea": 1140,
    "k, ": 1141,
    "You are ": 1142,
    "die ": 1143,
    "to fam": 1144,
    "to fami": 1145,
    "to famish": 1146,
    "Caius Marcius ": 1147,
    "ef ": 1148,
    "ene": 1149,
    "we'll ": 1150,
    "corn ": 1151,
    "corn at ": 1152,
    "pri": 1153,
    "'t a ": 1154,
    "dic": 1155,
    "No ": 1156,
    "let it ": 1157,
    "done": 1158,
    "Second Citizen:\n": 1159,
    "One ": 1160,
    "citizen": 1161,
    "accoun": 1162,
    "ted ": 1163,
    "oor ": 1164,
    "thor": 1165,
    "surfe": 1166,
    "its ": 1167,
    "reli": 1168,
    "relie": 1169,
    ": if ": 1170,
    "but the ": 1171,
    "super": 1172,
    "superf": 1173,
    "superflu": 1174,
    "ity, ": 1175,
    "wholes": 1176,
    "ome, ": 1177,
    "might ": 1178,
    "we are ": 1179,
    "ness ": 1180,
    "lic": 1181,
    "jec": 1182,
    "mis": 1183,
    "an\n": 1184,
    "ular": 1185,
    "abu": 1186,
    "abund": 1187,
    "ffer": 1188,
    "ance ": 1189,
    "reven": 1190,
    "with": 1191,
    "with\n": 1192,
    "kes, ": 1193,
    "become ": 1194,
    "hunger ": 1195,
    "not in ": 1196,
    "ally ": 1197,
    "gainst ": 1198,
    "first: ": 1199,
    "he's ": 1200,
    "alt": 1201,
    "Consid": 1202,
    "Consider ": 1203,
    "for his ": 1204,
    "for his countr": 1205,
    "y?\n\nFirst Citizen:\n": 1206,
    "Ver": 1207,
    "could be ": 1208,
    "conten": 1209,
    "content to ": 1210,
    "report ": 1211,
    "himsel": 1212,
    "himself ": 1213,
    "malici": 1214,
    "malicious": 1215,
    "he hath ": 1216,
    "he di": 1217,
    "end": 1218,
    "oft": 1219,
    "men ": 1220,
    "he did ": 1221,
    "to\n": 1222,
    "mother ": 1223,
    "and to ": 1224,
    "; which ": 1225,
    "e of ": 1226,
    "vir": 1227,
    "virtu": 1228,
    "cannot ": 1229,
    "nature": 1230,
    "ce in ": 1231,
    "no way ": 1232,
    "arr": 1233,
    "fault": 1234,
    "tir": 1235,
    "tire ": 1236,
    "petiti": 1237,
    "? The ": 1238,
    "city\n": 1239,
    "why ": 1240,
    "stay ": 1241,
    "ing here": 1242,
    "ing here? ": 1243,
    "to the Capitol": 1244,
    "Ag": 1245,
    "He": 1246,
    "honest ": 1247,
    "enough": 1248,
    "so": 1249,
    "ENENIUS:\nWhat ": 1250,
    "'s, ": 1251,
    "en, ": 1252,
    "bats and ": 1253,
    "bats and c": 1254,
    "bats and clu": 1255,
    "bats and clubs": 1256,
    "pray you": 1257,
    "Our ": 1258,
    "; they ": 1259,
    "ni": 1260,
    "They say ": 1261,
    "poor": 1262,
    "have strong ": 1263,
    "ths": 1264,
    "Why, ": 1265,
    "master": 1266,
    "my good frien": 1267,
    "mine ": 1268,
    "bour": 1269,
    "yourselves": 1270,
    "?\n\nFirst Citizen:\nWe ": 1271,
    "sir, ": 1272,
    "already": 1273,
    ". For ": 1274,
    "s,\n": 1275,
    "in this ": 1276,
    "dearth": 1277,
    "ke at ": 1278,
    "Roman ": 1279,
    "state, ": 1280,
    "whose ": 1281,
    "cour": 1282,
    "it ta": 1283,
    "cra": 1284,
    "crack": 1285,
    "en thou": 1286,
    "lin": 1287,
    "ever": 1288,
    "gods, ": 1289,
    "and\n": 1290,
    "knee": 1291,
    "s to ": 1292,
    "them, ": 1293,
    "help": 1294,
    "cal": 1295,
    "more at": 1296,
    "land": 1297,
    "ms ": 1298,
    ",\nWhen ": 1299,
    "curse ": 1300,
    "! T": 1301,
    "! Tru": 1302,
    "indee": 1303,
    "! They ": 1304,
    "ne'": 1305,
    "ne'er ": 1306,
    "car": 1307,
    "store-": 1308,
    "store-hou": 1309,
    "med ": 1310,
    "eal": 1311,
    "eal ": 1312,
    "dail": 1313,
    "hed ": 1314,
    "against the ": 1315,
    "rest": 1316,
    "restrain": 1317,
    "the po": 1318,
    "up, ": 1319,
    "lo": 1320,
    "mus": 1321,
    "t\nCon": 1322,
    "ess yoursel": 1323,
    "wond": 1324,
    ",\nOr ": 1325,
    "accused ": 1326,
    "folly": 1327,
    "shall tell you": 1328,
    "pretty ": 1329,
    "tale": 1330,
    "tale: ": 1331,
    "But, ": 1332,
    "little ": 1333,
    "you must ": 1334,
    "please": 1335,
    "the belly, ": 1336,
    ":\nT": 1337,
    "\nI": 1338,
    "idle ": 1339,
    "ard": 1340,
    "ing the ": 1341,
    "and, ": 1342,
    "never ": 1343,
    "bear": 1344,
    "ing\n": 1345,
    "Li": 1346,
    "Like ": 1347,
    "the other ": 1348,
    "inst": 1349,
    "instru": 1350,
    "s\nD": 1351,
    "fee": 1352,
    "And, ": 1353,
    "appet": 1354,
    "appetit": 1355,
    "e and ": 1356,
    "affec": 1357,
    "\nOf the ": 1358,
    "\nOf the whol": 1359,
    "\nOf the whole ": 1360,
    "\nOf the whole body": 1361,
    "answer ": 1362,
    "Sir": 1363,
    "ind ": 1364,
    "smi": 1365,
    "smile": 1366,
    ",\nWhich ": 1367,
    "came ": 1368,
    "from the ": 1369,
    "--\n": 1370,
    "For": 1371,
    "the belly ": 1372,
    "unt": 1373,
    "\nTo the ": 1374,
    "cont": 1375,
    "the mutin": 1376,
    "the mutinous ": 1377,
    "\nThat ": 1378,
    "recei": 1379,
    "senator": 1380,
    "such as ": 1381,
    "y's answer": 1382,
    "? W": 1383,
    "!\nThe ": 1384,
    "heart, ": 1385,
    ",\nOur ": 1386,
    "the le": 1387,
    "bric": 1388,
    "what then": 1389,
    "what then?\n\nFirst Citizen:\n": 1390,
    "hould ": 1391,
    ",\nWho is ": 1392,
    "former ": 1393,
    "ag": 1394,
    "compla": 1395,
    "complain": 1396,
    ",\nWhat ": 1397,
    "tell you\n": 1398,
    "sma": 1399,
    "Ye": 1400,
    "out ": 1401,
    "d;\n": 1402,
    "Not ": 1403,
    "ds,": 1404,
    ",\n'T": 1405,
    "the general ": 1406,
    "foo": 1407,
    "use ": 1408,
    "and the ": 1409,
    ",\nI ": 1410,
    "thr": 1411,
    "throu": 1412,
    "through ": 1413,
    "through the ": 1414,
    "s of your ": 1415,
    "blood": 1416,
    "ank": 1417,
    "off": 1418,
    "strong": 1419,
    "ves and ": 1420,
    "From ": 1421,
    "From me ": 1422,
    "all at ": 1423,
    "all at on": 1424,
    ",\nYou": 1425,
    "says ": 1426,
    "mar": 1427,
    "; well": 1428,
    "ee ": 1429,
    ",\nY": 1430,
    ",\nYet ": 1431,
    "all\n": 1432,
    "fl": 1433,
    "Rome are ": 1434,
    "counsel": 1435,
    "thing": 1436,
    "things ": 1437,
    "righ": 1438,
    ". What ": 1439,
    "do you ": 1440,
    "the great to": 1441,
    "the great toe": 1442,
    "?\n\nMENENIUS:\nFor ": 1443,
    ",\nOf ": 1444,
    "thou ": 1445,
    "fore": 1446,
    "art ": 1447,
    "rats ": 1448,
    ". What's the matter": 1449,
    "hat, ": 1450,
    "your op": 1451,
    "your opini": 1452,
    "on,\n": 1453,
    "on,\nM": 1454,
    "ake ": 1455,
    "good wor": 1456,
    "\nB": 1457,
    ". He that ": 1458,
    "find ": 1459,
    "lion": 1460,
    "you h": 1461,
    "here ": 1462,
    "you are ": 1463,
    "co": 1464,
    "stone ": 1465,
    "worthy ": 1466,
    "ce did ": 1467,
    "des": 1468,
    "nes": 1469,
    "your hat": 1470,
    "your hate": 1471,
    "\nWhich ": 1472,
    "vil": 1473,
    "oa": 1474,
    "oak": 1475,
    "Hang ": 1476,
    "ange ": 1477,
    "call ": 1478,
    "that was ": 1479,
    "gar": 1480,
    "cry ": 1481,
    "Under ": 1482,
    "you in ": 1483,
    "\nWould ": 1484,
    "other": 1485,
    "their own ": 1486,
    "they sa": 1487,
    "ed.\n\nMARCIUS:\n": 1488,
    "\nThey": 1489,
    "e, and ": 1490,
    "nob": 1491,
    "nobil": 1492,
    "lay ": 1493,
    "lay a": 1494,
    "lay aside ": 1495,
    "my s": 1496,
    "these are ": 1497,
    "almost ": 1498,
    "cow": 1499,
    "esee": 1500,
    "eseech ": 1501,
    "oke ": 1502,
    "s, that ": 1503,
    "sent ": 1504,
    "grant": 1505,
    "granted ": 1506,
    "os": 1507,
    "ity,\nAnd ": 1508,
    "thre": 1509,
    "As ": 1510,
    "moon": 1511,
    "tribu": 1512,
    "tribun": 1513,
    "tribunes ": 1514,
    "rut": 1515,
    "should have ": 1516,
    ",\nEre ": 1517,
    "prev": 1518,
    "prevail": 1519,
    "his is ": 1520,
    "rag": 1521,
    "?\n\nMessenger:\n": 1522,
    "news ": 1523,
    ", the Volsces ": 1524,
    "are in ": 1525,
    "are in arm": 1526,
    "are in arms": 1527,
    "are in arms.\n\nMARCIUS:\n": 1528,
    "I am g": 1529,
    "I am gla": 1530,
    "d on ": 1531,
    "then ": 1532,
    "we shall ": 1533,
    "ity. ": 1534,
    "eld": 1535
  },
  "itos": {
    "256": "[PAD]",
    "257": "[BOS]",
    "258": "[EOS]",
    "259": "[SYSTEM]",
    "260": "[USER]",
    "261": "[ASSISTANT]",
    "262": "[THOUGHT]",
    "0": "\u0000",
    "1": "\u0001",
    "2": "\u0002",
    "3": "\u0003",
    "4": "\u0004",
    "5": "\u0005",
    "6": "\u0006",
    "7": "\u0007",
    "8": "\b",
    "9": "\t",
    "10": "\n",
    "11": "\u000b",
    "12": "\f",
    "13": "\r",
    "14": "\u000e",
    "15": "\u000f",
    "16": "\u0010",
    "17": "\u0011",
    "18": "\u0012",
    "19": "\u0013",
    "20": "\u0014",
    "21": "\u0015",
    "22": "\u0016",
    "23": "\u0017",
    "24": "\u0018",
    "25": "\u0019",
    "26": "\u001a",
    "27": "\u001b",
    "28": "\u001c",
    "29": "\u001d",
    "30": "\u001e",
    "31": "\u001f",
    "32": " ",
    "33": "!",
    "34": "\"",
    "35": "#",
    "36": "$",
    "37": "%",
    "38": "&",
    "39": "'",
    "40": "(",
    "41": ")",
    "42": "*",
    "43": "+",
    "44": ",",
    "45": "-",
    "46": ".",
    "47": "/",
    "48": "0",
    "49": "1",
    "50": "2",
    "51": "3",
    "52": "4",
    "53": "5",
    "54": "6",
    "55": "7",
    "56": "8",
    "57": "9",
    "58": ":",
    "59": ";",
    "60": "<",
    "61": "=",
    "62": ">",
    "63": "?",
    "64": "@",
    "65": "A",
    "66": "B",
    "67": "C",
    "68": "D",
    "69": "E",
    "70": "F",
    "71": "G",
    "72": "H",
    "73": "I",
    "74": "J",
    "75": "K",
    "76": "L",
    "77": "M",
    "78": "N",
    "79": "O",
    "80": "P",
    "81": "Q",
    "82": "R",
    "83": "S",
    "84": "T",
    "85": "U",
    "86": "V",
    "87": "W",
    "88": "X",
    "89": "Y",
    "90": "Z",
    "91": "[",
    "92": "\\",
    "93": "]",
    "94": "^",
    "95": "_",
    "96": "`",
    "97": "a",
    "98": "b",
    "99": "c",
    "100": "d",
    "101": "e",
    "102": "f",
    "103": "g",
    "104": "h",
    "105": "i",
    "106": "j",
    "107": "k",
    "108": "l",
    "109": "m",
    "110": "n",
    "111": "o",
    "112": "p",
    "113": "q",
    "114": "r",
    "115": "s",
    "116": "t",
    "117": "u",
    "118": "v",
    "119": "w",
    "120": "x",
    "121": "y",
    "122": "z",
    "123": "{",
    "124": "|",
    "125": "}",
    "126": "~",
    "127": "\u007f",
    "128": "\ufffd",
    "129": "\ufffd",
    "130": "\ufffd",
    "131": "\ufffd",
    "132": "\ufffd",
    "133": "\ufffd",
    "134": "\ufffd",
    "135": "\ufffd",
    "136": "\ufffd",
    "137": "\ufffd",
    "138": "\ufffd",
    "139": "\ufffd",
    "140": "\ufffd",
    "141": "\ufffd",
    "142": "\ufffd",
    "143": "\ufffd",
    "144": "\ufffd",
    "145": "\ufffd",
    "146": "\ufffd",
    "147": "\ufffd",
    "148": "\ufffd",
    "149": "\ufffd",
    "150": "\ufffd",
    "151": "\ufffd",
    "152": "\ufffd",
    "153": "\ufffd",
    "154": "\ufffd",
    "155": "\ufffd",
    "156": "\ufffd",
    "157": "\ufffd",
    "158": "\ufffd",
    "159": "\ufffd",
    "160": "\ufffd",
    "161": "\ufffd",
    "162": "\ufffd",
    "163": "\ufffd",
    "164": "\ufffd",
    "165": "\ufffd",
    "166": "\ufffd",
    "167": "\ufffd",
    "168": "\ufffd",
    "169": "\ufffd",
    "170": "\ufffd",
    "171": "\ufffd",
    "172": "\ufffd",
    "173": "\ufffd",
    "174": "\ufffd",
    "175": "\ufffd",
    "176": "\ufffd",
    "177": "\ufffd",
    "178": "\ufffd",
    "179": "\ufffd",
    "180": "\ufffd",
    "181": "\ufffd",
    "182": "\ufffd",
    "183": "\ufffd",
    "184": "\ufffd",
    "185": "\ufffd",
    "186": "\ufffd",
    "187": "\ufffd",
    "188": "\ufffd",
    "189": "\ufffd",
    "190": "\ufffd",
    "191": "\ufffd",
    "192": "\ufffd",
    "193": "\ufffd",
    "194": "\ufffd",
    "195": "\ufffd",
    "196": "\ufffd",
    "197": "\ufffd",
    "198": "\ufffd",
    "199": "\ufffd",
    "200": "\ufffd",
    "201": "\ufffd",
    "202": "\ufffd",
    "203": "\ufffd",
    "204": "\ufffd",
    "205": "\ufffd",
    "206": "\ufffd",
    "207": "\ufffd",
    "208": "\ufffd",
    "209": "\ufffd",
    "210": "\ufffd",
    "211": "\ufffd",
    "212": "\ufffd",
    "213": "\ufffd",
    "214": "\ufffd",
    "215": "\ufffd",
    "216": "\ufffd",
    "217": "\ufffd",
    "218": "\ufffd",
    "219": "\ufffd",
    "220": "\ufffd",
    "221": "\ufffd",
    "222": "\ufffd",
    "223": "\ufffd",
    "224": "\ufffd",
    "225": "\ufffd",
    "226": "\ufffd",
    "227": "\ufffd",
    "228": "\ufffd",
    "229": "\ufffd",
    "230": "\ufffd",
    "231": "\ufffd",
    "232": "\ufffd",
    "233": "\ufffd",
    "234": "\ufffd",
    "235": "\ufffd",
    "236": "\ufffd",
    "237": "\ufffd",
    "238": "\ufffd",
    "239": "\ufffd",
    "240": "\ufffd",
    "241": "\ufffd",
    "242": "\ufffd",
    "243": "\ufffd",
    "244": "\ufffd",
    "245": "\ufffd",
    "246": "\ufffd",
    "247": "\ufffd",
    "248": "\ufffd",
    "249": "\ufffd",
    "250": "\ufffd",
    "251": "\ufffd",
    "252": "\ufffd",
    "253": "\ufffd",
    "254": "\ufffd",
    "255": "\ufffd",
    "263": "e ",
    "264": "th",
    "265": "t ",
    "266": "s ",
    "267": "ou",
    "268": ", ",
    "269": "d ",
    "270": "r ",
    "271": "in",
    "272": "an",
    "273": "en",
    "274": ":\n",
    "275": "y ",
    "276": "\n\n",
    "277": "er",
    "278": "on",
    "279": "ll",
    "280": "ar",
    "281": "the ",
    "282": "you",
    "283": "o ",
    "284": "ha",
    "285": "or",
    "286": ".\n\n",
    "287": "es",
    "288": ",\n",
    "289": "it",
    "290": "is ",
    "291": "ea",
    "292": "ll ",
    "293": "st ",
    "294": "the",
    "295": "no",
    "296": "om",
    "297": "f ",
    "298": "ir",
    "299": "I ",
    "300": "us",
    "301": "to ",
    "302": "US",
    "303": "US:\n",
    "304": "he ",
    "305": "and ",
    "306": "at",
    "307": "you ",
    "308": "; ",
    "309": "hi",
    "310": "IUS:\n",
    "311": "he",
    "312": "ing",
    "313": "in ",
    "314": "wi",
    "315": "st",
    "316": ". ",
    "317": "ow",
    "318": "re",
    "319": "oo",
    "320": ": ",
    "321": "it ",
    "322": "th ",
    "323": "ve",
    "324": "ve ",
    "325": "al",
    "326": "IA",
    "327": "IA:\n",
    "328": "or ",
    "329": "h ",
    "330": "ee",
    "331": "ma",
    "332": "di",
    "333": "at ",
    "334": "EN",
    "335": "irst ",
    "336": "us ",
    "337": "a ",
    "338": "hat ",
    "339": "of ",
    "340": "be",
    "341": "ld ",
    "342": "\nT",
    "343": "iti",
    "344": "se",
    "345": "zen",
    "346": ".\n\nV",
    "347": "itizen",
    "348": "an ",
    "349": "ri",
    "350": "li",
    "351": "wh",
    "352": "your ",
    "353": "First ",
    "354": "our ",
    "355": "ce",
    "356": "Citizen",
    "357": "Citizen:\n",
    "358": "am",
    "359": "s, ",
    "360": "pr",
    "361": "?\n\n",
    "362": "ing ",
    "363": "on ",
    "364": "er ",
    "365": "are ",
    "366": "wa",
    "367": "'s ",
    "368": "his ",
    "369": "ke ",
    "370": "ci",
    "371": "n ",
    "372": "ould ",
    "373": "not ",
    "374": "en ",
    "375": "y, ",
    "376": "\nW",
    "377": "e, ",
    "378": "ti",
    "379": "ch ",
    "380": "ed ",
    "381": "su",
    "382": "bu",
    "383": "that ",
    "384": "First Citizen:\n",
    "385": "my ",
    "386": "t, ",
    "387": "k ",
    "388": "ere ",
    "389": "mo",
    "390": "la",
    "391": "ol",
    "392": "com",
    "393": "for ",
    "394": "rea",
    "395": "with ",
    "396": "bl",
    "397": "him",
    "398": "we",
    "399": "have ",
    "400": "d, ",
    "401": "goo",
    "402": "' ",
    "403": "ru",
    "404": "ra",
    "405": "gh",
    "406": ".\n\nM",
    "407": "for",
    "408": "they ",
    "409": "one ",
    "410": "mu",
    "411": "An",
    "412": "Mar",
    "413": "le",
    "414": "ec",
    "415": "ce ",
    "416": "ENEN",
    "417": "ENENIUS:\n",
    "418": "ow ",
    "419": ",\nT",
    "420": "AR",
    "421": "sp",
    "422": "ther ",
    "423": "sh",
    "424": "Marci",
    "425": "good ",
    "426": "ir ",
    "427": "And ",
    "428": "now",
    "429": "be ",
    "430": "wor",
    "431": "their ",
    "432": "this ",
    "433": "un",
    "434": "sen",
    "435": "s\n",
    "436": "il",
    "437": "IR",
    "438": "IRG",
    "439": "IRGI",
    "440": "IRGIL",
    "441": "IRGILIA:\n",
    "442": "pe",
    "443": "ere",
    "444": "de",
    "445": "ent",
    "446": "d\n",
    "447": "sa",
    "448": "es ",
    "449": "mad",
    "450": "ARC",
    "451": "ARCIUS:\n",
    "452": "we ",
    "453": "me ",
    "454": "ac",
    "455": "but ",
    "456": "is",
    "457": "ga",
    "458": "id",
    "459": "ly ",
    "460": "sha",
    "461": "up",
    "462": "'d ",
    "463": ".\n\nVIRGILIA:\n",
    "464": "ur",
    "465": ".\n\nFirst Citizen:\n",
    "466": "all ",
    "467": "'ll ",
    "468": "mor",
    "469": "!\n\n",
    "470": "as ",
    "471": "se ",
    "472": "? ",
    "473": "Com",
    "474": "em",
    "475": "will ",
    "476": "bell",
    "477": "--",
    "478": "om ",
    "479": "AL",
    "480": "ALE",
    "481": "ALER",
    "482": "ALERIA:\n",
    "483": "know",
    "484": "cou",
    "485": "would ",
    "486": "them",
    "487": "g ",
    "488": "sel",
    "489": "was ",
    "490": "ter",
    "491": "hey ",
    "492": ",\nW",
    "493": "most ",
    "494": "ch",
    "495": "Rom",
    "496": "t\n",
    "497": "bo",
    "498": ".\n\nVALERIA:\n",
    "499": "ther",
    "500": "'t",
    "501": "et ",
    "502": "ver",
    "503": "to",
    "504": "par",
    "505": "go",
    "506": "ds ",
    "507": ".\n\nS",
    "508": "gain",
    "509": "him ",
    "510": "what ",
    "511": "well",
    "512": "ten",
    "513": "thou",
    "514": "hich ",
    "515": "fa",
    "516": "do ",
    "517": "dy",
    "518": "ta",
    "519": "ini",
    "520": "rom ",
    "521": "ator",
    "522": "OL",
    "523": "OLU",
    "524": "OLUM",
    "525": "OLUMN",
    "526": "OLUMNIA:\n",
    "527": "ear ",
    "528": "than ",
    "529": ", and ",
    "530": "coun",
    "531": "man",
    "532": "ly",
    "533": "thin",
    "534": "ff",
    "535": "our",
    "536": "Marcius",
    "537": "tr",
    "538": "gh ",
    "539": "lea",
    "540": "must ",
    "541": "ove",
    "542": "' the ",
    "543": "! ",
    "544": "est ",
    "545": ", I ",
    "546": "shall ",
    "547": ".\n\nMENENIUS:\n",
    "548": "ne",
    "549": "ble ",
    "550": "s of ",
    "551": "\nTo ",
    "552": "sw",
    "553": "?\n\nM",
    "554": "hat",
    "555": ".\n\nMARCIUS:\n",
    "556": "IN",
    "557": "INIUS:\n",
    "558": "madam",
    "559": "spea",
    "560": ".\n",
    "561": "ght ",
    "562": "ess ",
    "563": ";\n",
    "564": "nd",
    "565": "again",
    "566": "con",
    "567": "ive ",
    "568": "did ",
    "569": "The ",
    "570": "hon",
    "571": "were ",
    "572": "ds",
    "573": "ck",
    "574": "make ",
    "575": "da",
    "576": "war",
    "577": "hear",
    "578": "answ",
    "579": "from ",
    "580": "No",
    "581": ",\nAnd ",
    "582": "Sen",
    "583": "Senator",
    "584": "Senator:\n",
    "585": "fi",
    "586": "TUS:\n",
    "587": "All",
    "588": "All:\n",
    "589": "You",
    "590": "Ca",
    "591": "to the ",
    "592": "op",
    "593": "own ",
    "594": "more ",
    "595": "econ",
    "596": "econd ",
    "597": "ul",
    "598": "do",
    "599": "sid",
    "600": "; and ",
    "601": "What ",
    "602": "thes",
    "603": "o' the ",
    "604": "ity",
    "605": "go ",
    "606": "s and ",
    "607": "They ",
    "608": "str",
    "609": "your",
    "610": "ell ",
    "611": "\nA",
    "612": "by ",
    "613": "hou",
    "614": "ers",
    "615": "dis",
    "616": "then",
    "617": "fin",
    "618": "grea",
    "619": "dy ",
    "620": "el",
    "621": "pro",
    "622": ", you ",
    "623": "ius ",
    "624": "Marcius ",
    "625": ".\nW",
    "626": "if ",
    "627": "le ",
    "628": "ts ",
    "629": "t of ",
    "630": "es, ",
    "631": "vi",
    "632": "ces ",
    "633": "?\n\nFirst Citizen:\n",
    "634": "ay, ",
    "635": "can ",
    "636": "which ",
    "637": "no ",
    "638": "had ",
    "639": "arm",
    "640": "Your ",
    "641": "\nThe ",
    "642": "like ",
    "643": ",\nO",
    "644": "pre",
    "645": "tt",
    "646": "ver ",
    "647": "answer",
    "648": "'T",
    "649": "al ",
    "650": "me",
    "651": "br",
    "652": "upon ",
    "653": "tion",
    "654": "these ",
    "655": "First Senator:\n",
    "656": "IC",
    "657": "ICINIUS:\n",
    "658": "BR",
    "659": "BRU",
    "660": "BRUTUS:\n",
    "661": "You ",
    "662": "res",
    "663": "know ",
    "664": "econd Citizen:\n",
    "665": "the p",
    "666": "lu",
    "667": "that",
    "668": "us, ",
    "669": "them ",
    "670": "ge",
    "671": "fir",
    "672": "prou",
    "673": "ali",
    "674": "ous",
    "675": "say ",
    "676": "ven ",
    "677": "p ",
    "678": "other ",
    "679": "here",
    "680": "and",
    "681": "ith ",
    "682": "d to ",
    "683": "fri",
    "684": "frien",
    "685": "yoursel",
    "686": "tell ",
    "687": "are",
    "688": "For ",
    "689": "ant",
    "690": "ves ",
    "691": ",\nWh",
    "692": "ye",
    "693": "fo",
    "694": "ll, ",
    "695": "I'll ",
    "696": "the bell",
    "697": "\nO",
    "698": "so ",
    "699": "tru",
    "700": "In ",
    "701": "I am",
    "702": "bloo",
    "703": "how ",
    "704": "her ",
    "705": ",\nThat ",
    "706": "ang ",
    "707": "Au",
    "708": "Aufi",
    "709": "Aufidi",
    "710": "Comini",
    "711": ".\n\nVOLUMNIA:\n",
    "712": "eed, ",
    "713": "she ",
    "714": "eed ",
    "715": "hear ",
    "716": "speak",
    "717": "Caius ",
    "718": "cor",
    "719": "let ",
    "720": "one",
    "721": "word, ",
    "722": "sur",
    "723": "fe",
    "724": "gu",
    "725": "all",
    "726": "ys ",
    "727": "you, ",
    "728": "though ",
    "729": "of",
    "730": "tu",
    "731": "a\n",
    "732": "If ",
    "733": "cus",
    "734": "ati",
    "735": "side ",
    "736": "ay ",
    "737": "love",
    "738": "atter",
    "739": "ur ",
    "740": "stron",
    "741": "ds, ",
    "742": "sir",
    "743": "\nH",
    "744": "\nS",
    "745": "im",
    "746": ",\nThe ",
    "747": "it, ",
    "748": "ind",
    "749": "cr",
    "750": "gra",
    "751": ". I ",
    "752": "Bu",
    "753": "emb",
    "754": ",\nS",
    "755": "see ",
    "756": "ap",
    "757": "'d",
    "758": "--\n\n",
    "759": "?\n\nMENENIUS:\n",
    "760": ". W",
    "761": "loo",
    "762": "rece",
    "763": "ant ",
    "764": ", the ",
    "765": "by the ",
    "766": "pla",
    "767": "I will ",
    "768": "ab",
    "769": "gen",
    "770": "gener",
    "771": "I am ",
    "772": "not\n",
    "773": "Rome ",
    "774": "think",
    "775": "hat's ",
    "776": "He ",
    "777": "should ",
    "778": "in the ",
    "779": "si",
    "780": "ck ",
    "781": "forth ",
    "782": "pow",
    "783": "Vol",
    "784": "Vols",
    "785": "Volsces ",
    "786": "'tis ",
    "787": "us.\n\n",
    "788": ".\n\nSICINIUS:\n",
    "789": "honour",
    "790": "VOLUMNIA:\n",
    "791": "son",
    "792": ", good ",
    "793": "Be",
    "794": "proc",
    "795": "any ",
    "796": ".\n\nAll:\n",
    "797": "olve",
    "798": "fam",
    "799": "chi",
    "800": "peop",
    "801": "We ",
    "802": "Let ",
    "803": "ill ",
    "804": "au",
    "805": "ity ",
    "806": "y\n",
    "807": "per",
    "808": "whol",
    "809": "mi",
    "810": "think ",
    "811": "dear",
    "812": ": the ",
    "813": "aff",
    "814": "vent",
    "815": "ven",
    "816": "pi",
    "817": "for the ",
    "818": "speak ",
    "819": "hun",
    "820": "ger ",
    "821": "brea",
    "822": ".\n\nSecond Citizen:\n",
    "823": "against ",
    "824": "comm",
    "825": "Con",
    "826": "has ",
    "827": "done ",
    "828": "countr",
    "829": "could ",
    "830": "t to ",
    "831": "give ",
    "832": "rep",
    "833": "Nay, ",
    "834": "is, ",
    "835": "till ",
    "836": "can",
    "837": "hel",
    "838": "accus",
    "839": "pet",
    "840": "Come, ",
    "841": "who ",
    "842": "comes ",
    "843": "where ",
    "844": "\nWith ",
    "845": "matter",
    "846": "bus",
    "847": "busin",
    "848": "is not ",
    "849": "ate",
    "850": "ve\n",
    "851": "ves",
    "852": "hea",
    "853": "ate, ",
    "854": "who",
    "855": "cur",
    "856": "ment",
    "857": "more",
    "858": "ut",
    "859": "eat ",
    "860": "ous ",
    "861": "foll",
    "862": "tell you",
    "863": "ale",
    "864": "We",
    "865": "Well, ",
    "866": "Th",
    "867": "body",
    "868": "memb",
    "869": "only ",
    "870": "made ",
    "871": "well ",
    "872": "ed",
    "873": "mut",
    "874": "mutin",
    "875": "\nThey ",
    "876": "such ",
    "877": "king",
    "878": "ence ",
    "879": "qu",
    "880": "it is",
    "881": "ex",
    "882": "their c",
    "883": "\nAnd ",
    "884": "great ",
    "885": "as",
    "886": "first ",
    "887": "noble ",
    "888": "ever ",
    "889": "nor ",
    "890": "er, ",
    "891": "great",
    "892": "down ",
    "893": "kee",
    "894": "see",
    "895": "pres",
    "896": "tur",
    "897": "gr",
    "898": "not",
    "899": "new",
    "900": "hal",
    "901": ". T",
    "902": "shi",
    "903": "tter ",
    "904": "out of ",
    "905": "AU",
    "906": "AUF",
    "907": "AUFI",
    "908": "AUFID",
    "909": "AUFIDIUS:\n",
    "910": "Rome",
    "911": "af",
    "912": "arewell",
    "913": "hus",
    "914": "madam; ",
    "915": "Ind",
    "916": "Indeed, ",
    "917": "!\n\nVOLUMNIA:\n",
    "918": "lady",
    "919": "fore ",
    "920": "rather ",
    "921": "?\n\nAll:\n",
    "922": "olved",
    "923": "people",
    "924": "Let us ",
    "925": "'t ",
    "926": "way, ",
    "927": "ne ",
    "928": "the pat",
    "929": "the patri",
    "930": "the patrici",
    "931": "the patrician",
    "932": ".\nWhat ",
    "933": "whi",
    "934": "ob",
    "935": "parti",
    "936": "ance",
    "937": "\nsu",
    "938": "ge ",
    "939": "come ",
    "940": "gods ",
    "941": "I\n",
    "942": "Caius Marcius",
    "943": "first",
    "944": "very ",
    "945": "common",
    "946": "good\n",
    "947": "ort ",
    "948": "being ",
    "949": "proud",
    "950": "mali",
    "951": "hath ",
    "952": "ence",
    "953": "plea",
    "954": "se his ",
    "955": "part",
    "956": "he\n",
    "957": "even ",
    "958": "nat",
    "959": "ure",
    "960": "way ",
    "961": "he is ",
    "962": "I must ",
    "963": "not, ",
    "964": "ation",
    "965": "faul",
    "966": "city",
    "967": "Cap",
    "968": "Capit",
    "969": "Capitol",
    "970": "come",
    "971": "thy ",
    "972": "pp",
    "973": "ough",
    "974": "all the ",
    "975": "!\n\nM",
    "976": "bat",
    "977": "bs",
    "978": "pray ",
    "979": "now ",
    "980": "show ",
    "981": "'em",
    "982": "po",
    "983": "strong ",
    "984": "Wh",
    "985": "ster",
    "986": "good frien",
    "987": "min",
    "988": "alrea",
    "989": "\nHa",
    "990": "may ",
    "991": "tri",
    "992": "your st",
    "993": "nder ",
    "994": "nee",
    "995": "hither ",
    "996": "father",
    "997": "enem",
    "998": "for us",
    "999": "yet",
    "1000": "stor",
    "1001": "e-",
    "1002": "es\n",
    "1003": "ers; ",
    "1004": "ome ",
    "1005": "rain",
    "1006": "wars ",
    "1007": "there",
    "1008": "ond",
    "1009": "\nA ",
    "1010": "tty ",
    "1011": "you have ",
    "1012": "heard ",
    "1013": "sin",
    "1014": "erves ",
    "1015": "lit",
    "1016": "litt",
    "1017": "yet ",
    "1018": "but, ",
    "1019": "deli",
    "1020": "when ",
    "1021": "member",
    "1022": "id ",
    "1023": "\nOf ",
    "1024": "belly ",
    "1025": "answer'd",
    "1026": "cam",
    "1027": "thus",
    "1028": "look ",
    "1029": "\nAs ",
    "1030": "y's ",
    "1031": "own",
    "1032": "gil",
    "1033": "sol",
    "1034": "bri",
    "1035": ",\nWho ",
    "1036": ",--\n\n",
    "1037": "form",
    "1038": "you'll ",
    "1039": "est",
    "1040": "re ",
    "1041": "sh ",
    "1042": "and th",
    "1043": "receive ",
    "1044": "the gener",
    "1045": "you do ",
    "1046": "fit ",
    "1047": ",\nE",
    "1048": "ice",
    "1049": "eri",
    "1050": "hough ",
    "1051": "I do ",
    "1052": "leave ",
    "1053": "It ",
    "1054": "\nThe",
    "1055": "pu",
    "1056": "But ",
    "1057": "to you",
    "1058": "great to",
    "1059": "est, ",
    "1060": "'st ",
    "1061": "if",
    "1062": "rat",
    "1063": ";\nThe ",
    "1064": "ail",
    "1065": "hat's the ",
    "1066": "hat's the matter",
    "1067": "He that ",
    "1068": "hor",
    "1069": "mak",
    "1070": "han ",
    "1071": "Up",
    "1072": "Upon ",
    "1073": "es. ",
    "1074": "keep ",
    "1075": "es; ",
    "1076": "where",
    "1077": "like to ",
    "1078": "action",
    "1079": "my l",
    "1080": "?\n\nMARCIUS:\n",
    "1081": "hang ",
    "1082": "y; ",
    "1083": "Cor",
    "1084": "ly: ",
    "1085": "power ",
    "1086": "w ",
    "1087": "o, ",
    "1088": "essen",
    "1089": "esseng",
    "1090": "essenger",
    "1091": "essenger:\n",
    "1092": ".\n\nFirst Senator:\n",
    "1093": "thing ",
    "1094": "CO",
    "1095": "COM",
    "1096": "COMINIUS:\n",
    "1097": "half ",
    "1098": "ear",
    "1099": "wars",
    "1100": "itus ",
    "1101": "itus L",
    "1102": "itus Lar",
    "1103": "itus Larti",
    "1104": "busines",
    "1105": "!\n\nFirst Senator:\n",
    "1106": "ship",
    "1107": "forth",
    "1108": "k'd ",
    "1109": ".\n\nBRUTUS:\n",
    "1110": "ent ",
    "1111": "a man",
    "1112": "alon",
    "1113": "Aufidius",
    "1114": "rum",
    "1115": "dou",
    "1116": "doub",
    "1117": "when",
    "1118": "Farewell",
    "1119": "husb",
    "1120": "he was ",
    "1121": "day ",
    "1122": "brow",
    "1123": "chil",
    "1124": "vis",
    "1125": "visit ",
    "1126": "Hec",
    "1127": "ord ",
    "1128": "A ",
    "1129": "?\n\nV",
    "1130": ", good madam",
    "1131": "over ",
    "1132": ".\n\nVIRGILIA:\nNo",
    "1133": "door",
    "1134": "go with ",
    "1135": ".\n\nL",
    "1136": ".\n\nLAR",
    "1137": ".\n\nLART",
    "1138": ".\n\nLARTIUS:\n",
    "1139": "we proc",
    "1140": "pea",
    "1141": "k, ",
    "1142": "You are ",
    "1143": "die ",
    "1144": "to fam",
    "1145": "to fami",
    "1146": "to famish",
    "1147": "Caius Marcius ",
    "1148": "ef ",
    "1149": "ene",
    "1150": "we'll ",
    "1151": "corn ",
    "1152": "corn at ",
    "1153": "pri",
    "1154": "'t a ",
    "1155": "dic",
    "1156": "No ",
    "1157": "let it ",
    "1158": "done",
    "1159": "Second Citizen:\n",
    "1160": "One ",
    "1161": "citizen",
    "1162": "accoun",
    "1163": "ted ",
    "1164": "oor ",
    "1165": "thor",
    "1166": "surfe",
    "1167": "its ",
    "1168": "reli",
    "1169": "relie",
    "1170": ": if ",
    "1171": "but the ",
    "1172": "super",
    "1173": "superf",
    "1174": "superflu",
    "1175": "ity, ",
    "1176": "wholes",
    "1177": "ome, ",
    "1178": "might ",
    "1179": "we are ",
    "1180": "ness ",
    "1181": "lic",
    "1182": "jec",
    "1183": "mis",
    "1184": "an\n",
    "1185": "ular",
    "1186": "abu",
    "1187": "abund",
    "1188": "ffer",
    "1189": "ance ",
    "1190": "reven",
    "1191": "with",
    "1192": "with\n",
    "1193": "kes, ",
    "1194": "become ",
    "1195": "hunger ",
    "1196": "not in ",
    "1197": "ally ",
    "1198": "gainst ",
    "1199": "first: ",
    "1200": "he's ",
    "1201": "alt",
    "1202": "Consid",
    "1203": "Consider ",
    "1204": "for his ",
    "1205": "for his countr",
    "1206": "y?\n\nFirst Citizen:\n",
    "1207": "Ver",
    "1208": "could be ",
    "1209": "conten",
    "1210": "content to ",
    "1211": "report ",
    "1212": "himsel",
    "1213": "himself ",
    "1214": "malici",
    "1215": "malicious",
    "1216": "he hath ",
    "1217": "he di",
    "1218": "end",
    "1219": "oft",
    "1220": "men ",
    "1221": "he did ",
    "1222": "to\n",
    "1223": "mother ",
    "1224": "and to ",
    "1225": "; which ",
    "1226": "e of ",
    "1227": "vir",
    "1228": "virtu",
    "1229": "cannot ",
    "1230": "nature",
    "1231": "ce in ",
    "1232": "no way ",
    "1233": "arr",
    "1234": "fault",
    "1235": "tir",
    "1236": "tire ",
    "1237": "petiti",
    "1238": "? The ",
    "1239": "city\n",
    "1240": "why ",
    "1241": "stay ",
    "1242": "ing here",
    "1243": "ing here? ",
    "1244": "to the Capitol",
    "1245": "Ag",
    "1246": "He",
    "1247": "honest ",
    "1248": "enough",
    "1249": "so",
    "1250": "ENENIUS:\nWhat ",
    "1251": "'s, ",
    "1252": "en, ",
    "1253": "bats and ",
    "1254": "bats and c",
    "1255": "bats and clu",
    "1256": "bats and clubs",
    "1257": "pray you",
    "1258": "Our ",
    "1259": "; they ",
    "1260": "ni",
    "1261": "They say ",
    "1262": "poor",
    "1263": "have strong ",
    "1264": "ths",
    "1265": "Why, ",
    "1266": "master",
    "1267": "my good frien",
    "1268": "mine ",
    "1269": "bour",
    "1270": "yourselves",
    "1271": "?\n\nFirst Citizen:\nWe ",
    "1272": "sir, ",
    "1273": "already",
    "1274": ". For ",
    "1275": "s,\n",
    "1276": "in this ",
    "1277": "dearth",
    "1278": "ke at ",
    "1279": "Roman ",
    "1280": "state, ",
    "1281": "whose ",
    "1282": "cour",
    "1283": "it ta",
    "1284": "cra",
    "1285": "crack",
    "1286": "en thou",
    "1287": "lin",
    "1288": "ever",
    "1289": "gods, ",
    "1290": "and\n",
    "1291": "knee",
    "1292": "s to ",
    "1293": "them, ",
    "1294": "help",
    "1295": "cal",
    "1296": "more at",
    "1297": "land",
    "1298": "ms ",
    "1299": ",\nWhen ",
    "1300": "curse ",
    "1301": "! T",
    "1302": "! Tru",
    "1303": "indee",
    "1304": "! They ",
    "1305": "ne'",
    "1306": "ne'er ",
    "1307": "car",
    "1308": "store-",
    "1309": "store-hou",
    "1310": "med ",
    "1311": "eal",
    "1312": "eal ",
    "1313": "dail",
    "1314": "hed ",
    "1315": "against the ",
    "1316": "rest",
    "1317": "restrain",
    "1318": "the po",
    "1319": "up, ",
    "1320": "lo",
    "1321": "mus",
    "1322": "t\nCon",
    "1323": "ess yoursel",
    "1324": "wond",
    "1325": ",\nOr ",
    "1326": "accused ",
    "1327": "folly",
    "1328": "shall tell you",
    "1329": "pretty ",
    "1330": "tale",
    "1331": "tale: ",
    "1332": "But, ",
    "1333": "little ",
    "1334": "you must ",
    "1335": "please",
    "1336": "the belly, ",
    "1337": ":\nT",
    "1338": "\nI",
    "1339": "idle ",
    "1340": "ard",
    "1341": "ing the ",
    "1342": "and, ",
    "1343": "never ",
    "1344": "bear",
    "1345": "ing\n",
    "1346": "Li",
    "1347": "Like ",
    "1348": "the other ",
    "1349": "inst",
    "1350": "instru",
    "1351": "s\nD",
    "1352": "fee",
    "1353": "And, ",
    "1354": "appet",
    "1355": "appetit",
    "1356": "e and ",
    "1357": "affec",
    "1358": "\nOf the ",
    "1359": "\nOf the whol",
    "1360": "\nOf the whole ",
    "1361": "\nOf the whole body",
    "1362": "answer ",
    "1363": "Sir",
    "1364": "ind ",
    "1365": "smi",
    "1366": "smile",
    "1367": ",\nWhich ",
    "1368": "came ",
    "1369": "from the ",
    "1370": "--\n",
    "1371": "For",
    "1372": "the belly ",
    "1373": "unt",
    "1374": "\nTo the ",
    "1375": "cont",
    "1376": "the mutin",
    "1377": "the mutinous ",
    "1378": "\nThat ",
    "1379": "recei",
    "1380": "senator",
    "1381": "such as ",
    "1382": "y's answer",
    "1383": "? W",
    "1384": "!\nThe ",
    "1385": "heart, ",
    "1386": ",\nOur ",
    "1387": "the le",
    "1388": "bric",
    "1389": "what then",
    "1390": "what then?\n\nFirst Citizen:\n",
    "1391": "hould ",
    "1392": ",\nWho is ",
    "1393": "former ",
    "1394": "ag",
    "1395": "compla",
    "1396": "complain",
    "1397": ",\nWhat ",
    "1398": "tell you\n",
    "1399": "sma",
    "1400": "Ye",
    "1401": "out ",
    "1402": "d;\n",
    "1403": "Not ",
    "1404": "ds,",
    "1405": ",\n'T",
    "1406": "the general ",
    "1407": "foo",
    "1408": "use ",
    "1409": "and the ",
    "1410": ",\nI ",
    "1411": "thr",
    "1412": "throu",
    "1413": "through ",
    "1414": "through the ",
    "1415": "s of your ",
    "1416": "blood",
    "1417": "ank",
    "1418": "off",
    "1419": "strong",
    "1420": "ves and ",
    "1421": "From ",
    "1422": "From me ",
    "1423": "all at ",
    "1424": "all at on",
    "1425": ",\nYou",
    "1426": "says ",
    "1427": "mar",
    "1428": "; well",
    "1429": "ee ",
    "1430": ",\nY",
    "1431": ",\nYet ",
    "1432": "all\n",
    "1433": "fl",
    "1434": "Rome are ",
    "1435": "counsel",
    "1436": "thing",
    "1437": "things ",
    "1438": "righ",
    "1439": ". What ",
    "1440": "do you ",
    "1441": "the great to",
    "1442": "the great toe",
    "1443": "?\n\nMENENIUS:\nFor ",
    "1444": ",\nOf ",
    "1445": "thou ",
    "1446": "fore",
    "1447": "art ",
    "1448": "rats ",
    "1449": ". What's the matter",
    "1450": "hat, ",
    "1451": "your op",
    "1452": "your opini",
    "1453": "on,\n",
    "1454": "on,\nM",
    "1455": "ake ",
    "1456": "good wor",
    "1457": "\nB",
    "1458": ". He that ",
    "1459": "find ",
    "1460": "lion",
    "1461": "you h",
    "1462": "here ",
    "1463": "you are ",
    "1464": "co",
    "1465": "stone ",
    "1466": "worthy ",
    "1467": "ce did ",
    "1468": "des",
    "1469": "nes",
    "1470": "your hat",
    "1471": "your hate",
    "1472": "\nWhich ",
    "1473": "vil",
    "1474": "oa",
    "1475": "oak",
    "1476": "Hang ",
    "1477": "ange ",
    "1478": "call ",
    "1479": "that was ",
    "1480": "gar",
    "1481": "cry ",
    "1482": "Under ",
    "1483": "you in ",
    "1484": "\nWould ",
    "1485": "other",
    "1486": "their own ",
    "1487": "they sa",
    "1488": "ed.\n\nMARCIUS:\n",
    "1489": "\nThey",
    "1490": "e, and ",
    "1491": "nob",
    "1492": "nobil",
    "1493": "lay ",
    "1494": "lay a",
    "1495": "lay aside ",
    "1496": "my s",
    "1497": "these are ",
    "1498": "almost ",
    "1499": "cow",
    "1500": "esee",
    "1501": "eseech ",
    "1502": "oke ",
    "1503": "s, that ",
    "1504": "sent ",
    "1505": "grant",
    "1506": "granted ",
    "1507": "os",
    "1508": "ity,\nAnd ",
    "1509": "thre",
    "1510": "As ",
    "1511": "moon",
    "1512": "tribu",
    "1513": "tribun",
    "1514": "tribunes ",
    "1515": "rut",
    "1516": "should have ",
    "1517": ",\nEre ",
    "1518": "prev",
    "1519": "prevail",
    "1520": "his is ",
    "1521": "rag",
    "1522": "?\n\nMessenger:\n",
    "1523": "news ",
    "1524": ", the Volsces ",
    "1525": "are in ",
    "1526": "are in arm",
    "1527": "are in arms",
    "1528": "are in arms.\n\nMARCIUS:\n",
    "1529": "I am g",
    "1530": "I am gla",
    "1531": "d on ",
    "1532": "then ",
    "1533": "we shall ",
    "1534": "ity. ",
    "1535": "eld"
  }
}