{
  "vocab": {
    "0": "00",
    "1": "01",
    "2": "02",
    "3": "03",
    "4": "04",
    "5": "05",
    "6": "06",
    "7": "07",
    "8": "08",
    "9": "09",
    "10": "0a",
    "11": "0b",
    "12": "0c",
    "13": "0d",
    "14": "0e",
    "15": "0f",
    "16": "10",
    "17": "11",
    "18": "12",
    "19": "13",
    "20": "14",
    "21": "15",
    "22": "16",
    "23": "17",
    "24": "18",
    "25": "19",
    "26": "1a",
    "27": "1b",
    "28": "1c",
    "29": "1d",
    "30": "1e",
    "31": "1f",
    "32": "20",
    "33": "21",
    "34": "22",
    "35": "23",
    "36": "24",
    "37": "25",
    "38": "26",
    "39": "27",
    "40": "28",
    "41": "29",
    "42": "2a",
    "43": "2b",
    "44": "2c",
    "45": "2d",
    "46": "2e",
    "47": "2f",
    "48": "30",
    "49": "31",
    "50": "32",
    "51": "33",
    "52": "34",
    "53": "35",
    "54": "36",
    "55": "37",
    "56": "38",
    "57": "39",
    "58": "3a",
    "59": "3b",
    "60": "3c",
    "61": "3d",
    "62": "3e",
    "63": "3f",
    "64": "40",
    "65": "41",
    "66": "42",
    "67": "43",
    "68": "44",
    "69": "45",
    "70": "46",
    "71": "47",
    "72": "48",
    "73": "49",
    "74": "4a",
    "75": "4b",
    "76": "4c",
    "77": "4d",
    "78": "4e",
    "79": "4f",
    "80": "50",
    "81": "51",
    "82": "52",
    "83": "53",
    "84": "54",
    "85": "55",
    "86": "56",
    "87": "57",
    "88": "58",
    "89": "59",
    "90": "5a",
    "91": "5b",
    "92": "5c",
    "93": "5d",
    "94": "5e",
    "95": "5f",
    "96": "60",
    "97": "61",
    "98": "62",
    "99": "63",
    "100": "64",
    "101": "65",
    "102": "66",
    "103": "67",
    "104": "68",
    "105": "69",
    "106": "6a",
    "107": "6b",
    "108": "6c",
    "109": "6d",
    "110": "6e",
    "111": "6f",
    "112": "70",
    "113": "71",
    "114": "72",
    "115": "73",
    "116": "74",
    "117": "75",
    "118": "76",
    "119": "77",
    "120": "78",
    "121": "79",
    "122": "7a",
    "123": "7b",
    "124": "7c",
    "125": "7d",
    "126": "7e",
    "127": "7f",
    "128": "80",
    "129": "81",
    "130": "82",
    "131": "83",
    "132": "84",
    "133": "85",
    "134": "86",
    "135": "87",
    "136": "88",
    "137": "89",
    "138": "8a",
    "139": "8b",
    "140": "8c",
    "141": "8d",
    "142": "8e",
    "143": "8f",
    "144": "90",
    "145": "91",
    "146": "92",
    "147": "93",
    "148": "94",
    "149": "95",
    "150": "96",
    "151": "97",
    "152": "98",
    "153": "99",
    "154": "9a",
    "155": "9b",
    "156": "9c",
    "157": "9d",
    "158": "9e",
    "159": "9f",
    "160": "a0",
    "161": "a1",
    "162": "a2",
    "163": "a3",
    "164": "a4",
    "165": "a5",
    "166": "a6",
    "167": "a7",
    "168": "a8",
    "169": "a9",
    "170": "aa",
    "171": "ab",
    "172": "ac",
    "173": "ad",
    "174": "ae",
    "175": "af",
    "176": "b0",
    "177": "b1",
    "178": "b2",
    "179": "b3",
    "180": "b4",
    "181": "b5",
    "182": "b6",
    "183": "b7",
    "184": "b8",
    "185": "b9",
    "186": "ba",
    "187": "bb",
    "188": "bc",
    "189": "bd",
    "190": "be",
    "191": "bf",
    "192": "c0",
    "193": "c1",
    "194": "c2",
    "195": "c3",
    "196": "c4",
    "197": "c5",
    "198": "c6",
    "199": "c7",
    "200": "c8",
    "201": "c9",
    "202": "ca",
    "203": "cb",
    "204": "cc",
    "205": "cd",
    "206": "ce",
    "207": "cf",
    "208": "d0",
    "209": "d1",
    "210": "d2",
    "211": "d3",
    "212": "d4",
    "213": "d5",
    "214": "d6",
    "215": "d7",
    "216": "d8",
    "217": "d9",
    "218": "da",
    "219": "db",
    "220": "dc",
    "221": "dd",
    "222": "de",
    "223": "df",
    "224": "e0",
    "225": "e1",
    "226": "e2",
    "227": "e3",
    "228": "e4",
    "229": "e5",
    "230": "e6",
    "231": "e7",
    "232": "e8",
    "233": "e9",
    "234": "ea",
    "235": "eb",
    "236": "ec",
    "237": "ed",
    "238": "ee",
    "239": "ef",
    "240": "f0",
    "241": "f1",
    "242": "f2",
    "243": "f3",
    "244": "f4",
    "245": "f5",
    "246": "f6",
    "247": "f7",
    "248": "f8",
    "249": "f9",
    "250": "fa",
    "251": "fb",
    "252": "fc",
    "253": "fd",
    "254": "fe",
    "255": "ff",
    "256": "5b5041445d",
    "257": "5b424f535d",
    "258": "5b454f535d",
    "259": "5b53595354454d5d",
    "260": "5b555345525d",
    "261": "5b415353495354414e545d",
    "262": "5b54484f554748545d",
    "263": "6520",
    "264": "7320",
    "265": "7468",
    "266": "696e",
    "267": "6420",
    "268": "616e",
    "269": "6572",
    "270": "7420",
    "271": "6f6e",
    "272": "656e",
    "273": "6f72",
    "274": "7469",
    "275": "74686520",
    "276": "2c20",
    "277": "7920",
    "278": "6172",
    "279": "0a0a",
    "280": "616c",
    "281": "2e0a0a",
    "282": "7265",
    "283": "6f20",
    "284": "6f66",
    "285": "6f6620",
    "286": "696e67",
    "287": "616e6420",
    "288": "6f75",
    "289": "746f20",
    "290": "656420",
    "291": "696e6720",
    "292": "7374",
    "293": "6174",
    "294": "6120",
    "295": "74696f6e",
    "296": "726f",
    "297": "6573",
    "298": "696e20",
    "299": "6963",
    "300": "657320",
    "301": "657220",
    "302": "656c",
    "303": "6368",
    "304": "697320",
    "305": "6974",
    "306": "696c",
    "307": "6f7220",
    "308": "616c20",
    "309": "6563",
    "310": "6f6d",
    "311": "617420",
    "312": "6173",
    "313": "6174696f6e",
    "314": "6973",
    "315": "6163",
    "316": "616e20",
    "317": "6f6c",
    "318": "617320",
    "319": "656d",
    "320": "706c",
    "321": "7573",
    "322": "7572",
    "323": "6f77",
    "324": "5468",
    "325": "70726f",
    "326": "656e74",
    "327": "616d",
    "328": "7369",
    "329": "6f6e20",
    "330": "6469",
    "331": "656e20",
    "332": "656e7420",
    "333": "7768",
    "334": "766520",
    "335": "746820",
    "336": "2e0a0a5468",
    "337": "7468617420",
    "338": "6162",
    "339": "6c20",
    "340": "6574",
    "341": "6972",
    "342": "666f7220",
    "343": "756e",
    "344": "7375",
    "345": "636f6e",
    "346": "6d20",
    "347": "6967",
    "348": "6c7920",
    "349": "6578",
    "350": "7472",
    "351": "6576",
    "352": "61726520",
    "353": "6f73",
    "354": "656172",
    "355": "6f662074686520",
    "356": "6964",
    "357": "732c20",
    "358": "6174696f6e20",
    "359": "636f6d",
    "360": "6564",
    "361": "706572",
    "362": "756c",
    "363": "6e20",
    "364": "6820",
    "365": "696d",
    "366": "6167",
    "367": "6164",
    "368": "6170",
    "369": "726573",
    "370": "666f72",
    "371": "7769",
    "372": "6f7572",
    "373": "652c20",
    "374": "2e0a0a54686520",
    "375": "746865",
    "376": "636520",
    "377": "6b20",
    "378": "6f70",
    "379": "636820",
    "380": "6c69",
    "381": "6f756e",
    "382": "7769746820",
    "383": "6861",
    "384": "766572",
    "385": "6f63",
    "386": "6c6520",
    "387": "6d61",
    "388": "277320",
    "389": "697420",
    "390": "746963",
    "391": "6f64",
    "392": "2e0a0a49",
    "393": "627920",
    "394": "7320616e6420",
    "395": "74696f6e20",
    "396": "626520",
    "397": "696e2074686520",
    "398": "7368",
    "399": "7175",
    "400": "746572",
    "401": "66726f",
    "402": "6570",
    "403": "7563",
    "404": "6265",
    "405": "737472",
    "406": "747320",
    "407": "66726f6d20",
    "408": "636c",
    "409": "7564",
    "410": "69747920",
    "411": "776f72",
    "412": "65726520",
    "413": "61746520",
    "414": "6f7720",
    "415": "6666",
    "416": "2e0a0a41",
    "417": "696768",
    "418": "7370",
    "419": "6e65",
    "420": "756d",
    "421": "6f757220",
    "422": "696320",
    "423": "6772",
    "424": "6c6420",
    "425": "697220",
    "426": "73206f6620",
    "427": "6e6f",
    "428": "65206f6620",
    "429": "6f6f",
    "430": "626c",
    "431": "7269",
    "432": "7365",
    "433": "7020",
    "434": "706172",
    "435": "6d65",
    "436": "6f757420",
    "437": "65727320",
    "438": "6561",
    "439": "6275",
    "440": "656420746f20",
    "441": "61696e",
    "442": "6d616e",
    "443": "616c6c",
    "444": "732e0a0a",
    "445": "6179",
    "446": "6d656e7420",
    "447": "77617320",
    "448": "6f756c6420",
    "449": "2c20616e6420",
    "450": "6f726520",
    "451": "2920",
    "452": "6861766520",
    "453": "6369",
    "454": "746865697220",
    "455": "6f7567",
    "456": "636573",
    "457": "7468657220",
    "458": "3a20",
    "459": "75726520",
    "460": "706f72",
    "461": "6f67",
    "462": "63616e20",
    "463": "7320746f20",
    "464": "7072",
    "465": "637265",
    "466": "74696d",
    "467": "7065",
    "468": "7574",
    "469": "616e64",
    "470": "7469766520",
    "471": "6e6f7420",
    "472": "68617320",
    "473": "6f7520",
    "474": "6566",
    "475": "696c6c20",
    "476": "65732c20",
    "477": "656e7469",
    "478": "6f74",
    "479": "6966",
    "480": "3030",
    "481": "20616e6420",
    "482": "77686963",
    "483": "6b6520",
    "484": "656e747320",
    "485": "6f6e67",
    "486": "6174656420",
    "487": "726563",
    "488": "656e64",
    "489": "736f20",
    "490": "776869636820",
    "491": "696e672074686520",
    "492": "616c6c7920",
    "493": "6f76",
    "494": "646973",
    "495": "617920",
    "496": "6f6e6520",
    "497": "656374",
    "498": "7720",
    "499": "616c6c20",
    "500": "7468657920",
    "501": "657374",
    "502": "2c2074686520",
    "503": "2e20",
    "504": "616e67",
    "505": "707265",
    "506": "6d6f726520",
    "507": "77696c6c20",
    "508": "6c65",
    "509": "7261",
    "510": "696e6520",
    "511": "2d20",
    "512": "617220",
    "513": "656c6c",
    "514": "616e7420",
    "515": "7765",
    "516": "75736520",
    "517": "746f2074686520",
    "518": "7461",
    "519": "666f726d",
    "520": "706c6520",
    "521": "6f737420",
    "522": "697374",
    "523": "652e0a0a",
    "524": "61727920",
    "525": "766964",
    "526": "69747320",
    "527": "6f766572",
    "528": "636f6d6d",
    "529": "74657220",
    "530": "6b696e6720",
    "531": "697a",
    "532": "7379",
    "533": "656e63",
    "534": "756e64",
    "535": "69657320",
    "536": "70726573",
    "537": "2e0a",
    "538": "5768",
    "539": "792c20",
    "540": "61626c6520",
    "541": "65737420",
    "542": "7468697320",
    "543": "6576656c",
    "544": "706f",
    "545": "636f6e74",
    "546": "757265",
    "547": "61626f757420",
    "548": "6f75676820",
    "549": "65736520",
    "550": "656d20",
    "551": "656c7920",
    "552": "68656c",
    "553": "3020",
    "554": "6f6d6520",
    "555": "647563",
    "556": "656e636520",
    "557": "6f7264",
    "558": "646174",
    "559": "6f6f6420",
    "560": "7669",
    "561": "666c",
    "562": "7468616e20",
    "563": "6963616c20",
    "564": "656420627920",
    "565": "7765726520",
    "566": "2e0a0a496e20",
    "567": "6472",
    "568": "796f7520",
    "569": "616e63",
    "570": "69616c20",
    "571": "7068",
    "572": "657373",
    "573": "7465",
    "574": "74686572",
    "575": "2e0a0a53",
    "576": "666163",
    "577": "6967687420",
    "578": "6475",
    "579": "6f776e20",
    "580": "6f62",
    "581": "6272",
    "582": "61676520",
    "583": "3139",
    "584": "706f73",
    "585": "74206f6620",
    "586": "4368",
    "587": "6174657320",
    "588": "79656172",
    "589": "686f7720",
    "590": "6865",
    "591": "70656f",
    "592": "696e74",
    "593": "796f757220",
    "594": "6f7468657220",
    "595": "6d656e74",
    "596": "73747564",
    "597": "776520",
    "598": "6b6e",
    "599": "6973206120",
    "600": "6f6c6f67",
    "601": "746976",
    "602": "62757420",
    "603": "736572",
    "604": "696e746572",
    "605": "636c7564",
    "606": "7061",
    "607": "3f0a0a",
    "608": "726567",
    "609": "737420",
    "610": "e280",
    "611": "616e74",
    "612": "6c656172",
    "613": "746872",
    "614": "696420",
    "615": "7361",
    "616": "6520746f20",
    "617": "6976",
    "618": "736964",
    "619": "61736520",
    "620": "617267",
    "621": "696e636c7564",
    "622": "706f7274",
    "623": "6f6e2074686520",
    "624": "6f6f6c",
    "625": "616e73",
    "626": "6d696e",
    "627": "616c736f20",
    "628": "70726f636573",
    "629": "6f6e6720",
    "630": "636f6d70",
    "631": "617269",
    "632": "6669",
    "633": "6465",
    "634": "65766572",
    "635": "616e636520",
    "636": "77686f20",
    "637": "616e642074686520",
    "638": "636f756e",
    "639": "6f757320",
    "640": "696c6c",
    "641": "617264",
    "642": "657420",
    "643": "6265656e20",
    "644": "4920",
    "645": "706f6c",
    "646": "656420696e20",
    "647": "757320",
    "648": "2e0a0a497420",
    "649": "6620",
    "650": "7469657320",
    "651": "652074686520",
    "652": "72656c",
    "653": "6d616e7920",
    "654": "6176",
    "655": "6d6f737420",
    "656": "3230",
    "657": "666f722074686520",
    "658": "6f756e6420",
    "659": "6772616d",
    "660": "7320696e20",
    "661": "75737420",
    "662": "617373",
    "663": "74696320",
    "664": "626f",
    "665": "73706563",
    "666": "776f726b",
    "667": "6970",
    "668": "757020",
    "669": "5374",
    "670": "66726f6d2074686520",
    "671": "736520",
    "672": "2e0a0a5468697320",
    "673": "792e0a0a",
    "674": "70656f706c6520",
    "675": "70726f766964",
    "676": "646563",
    "677": "6d6f6e",
    "678": "7375636820",
    "679": "6665",
    "680": "726973",
    "681": "626563",
    "682": "54686520",
    "683": "6e696e6720",
    "684": "656c20",
    "685": "7468726f75676820",
    "686": "626574",
    "687": "656c6c20",
    "688": "496e",
    "689": "646573",
    "690": "73797374",
    "691": "696f6e",
    "692": "64696666",
    "693": "746865736520",
    "694": "737570",
    "695": "7475",
    "696": "636f6c",
    "697": "5354",
    "698": "677265",
    "699": "3520",
    "700": "6174696f6e7320",
    "701": "6576656c6f70",
    "702": "4f53",
    "703": "5d20",
    "704": "73696f6e",
    "705": "696c6520",
    "706": "617374",
    "707": "67656e",
    "708": "68616420",
    "709": "4120",
    "710": "737562",
    "711": "7075",
    "712": "6f736520",
    "713": "676c",
    "714": "65737320",
    "715": "6368696c",
    "716": "7768656e20",
    "717": "696e637265",
    "718": "65642074686520",
    "719": "6578706572",
    "720": "6d617920",
    "721": "737572",
    "722": "6175",
    "723": "6d6572",
    "724": "5d0a",
    "725": "7374727563",
    "726": "776f726b20",
    "727": "656e67",
    "728": "726f77",
    "729": "776174",
    "730": "726561",
    "731": "657320616e6420",
    "732": "6174696f6e616c20",
    "733": "62657220",
    "734": "646576656c6f70",
    "735": "73207468617420",
    "736": "6e69",
    "737": "7477",
    "738": "666972",
    "739": "4f535d",
    "740": "545d0a",
    "741": "6461746120",
    "742": "732061726520",
    "743": "7768617420",
    "744": "6162696c",
    "745": "637572",
    "746": "6f7574",
    "747": "6567",
    "748": "7920616e6420",
    "749": "736563",
    "750": "73686f756c6420",
    "751": "747269",
    "752": "6173206120",
    "753": "65637420",
    "754": "737469",
    "755": "65732e0a0a",
    "756": "3b20",
    "757": "63686f6f6c",
    "758": "646f20",
    "759": "626c6520",
    "760": "6b65",
    "761": "696e76",
    "762": "65642c20",
    "763": "736f6d6520",
    "764": "646974696f6e",
    "765": "697368",
    "766": "6573206f6620",
    "767": "636172",
    "768": "2e0a5b",
    "769": "70726f6772616d",
    "770": "61636b",
    "771": "732074686520",
    "772": "6e756d",
    "773": "74696e6720",
    "774": "746973",
    "775": "6c6f77",
    "776": "69636520",
    "777": "636f",
    "778": "6d6172",
    "779": "6578616d",
    "780": "656666",
    "781": "616c75",
    "782": "696e64",
    "783": "6672",
    "784": "756d20",
    "785": "626173",
    "786": "3220",
    "787": "656d656e7420",
    "788": "79206f6620",
    "789": "776f756c6420",
    "790": "3138",
    "791": "732e0a0a54686520",
    "792": "68697320",
    "793": "6f6f64",
    "794": "6175736520",
    "795": "6d6f64",
    "796": "6d696c",
    "797": "747572",
    "798": "68696768",
    "799": "61737420",
    "800": "696c20",
    "801": "2e0a0a48",
    "802": "6865616c",
    "803": "686520",
    "804": "6177",
    "805": "6f756768",
    "806": "68656c7020",
    "807": "797468",
    "808": "657320746f20",
    "809": "6f756e64",
    "810": "6f7267",
    "811": "6368616e67",
    "812": "69616c",
    "813": "617474",
    "814": "7970",
    "815": "736967",
    "816": "73657276",
    "817": "2e0a0a4120",
    "818": "6f7665726e",
    "819": "726573656172",
    "820": "6675",
    "821": "616e7920",
    "822": "6174696f6e206f6620",
    "823": "6f76657220",
    "824": "636f6e63",
    "825": "646966666572",
    "826": "61626c",
    "827": "636170",
    "828": "6174696e6720",
    "829": "72657175",
    "830": "696620",
    "831": "5553",
    "832": "646f",
    "833": "706c616e",
    "834": "77697468",
    "835": "7472616e73",
    "836": "7573656420",
    "837": "7973",
    "838": "6561636820",
    "839": "70657273",
    "840": "6d6174",
    "841": "323031",
    "842": "747265",
    "843": "656e6420",
    "844": "617469766520",
    "845": "6d65726963",
    "846": "706f6e",
    "847": "636f6d706c",
    "848": "69732074686520",
    "849": "7765656e20",
    "850": "6e616d",
    "851": "2020",
    "852": "68756d",
    "853": "696e6720746f20",
    "854": "656173",
    "855": "73696f6e20",
    "856": "616368",
    "857": "646570",
    "858": "746f",
    "859": "74656368",
    "860": "657267",
    "861": "732c20616e6420",
    "862": "616363",
    "863": "676f7665726e",
    "864": "596f7520",
    "865": "696e6420",
    "866": "6265747765656e20",
    "867": "76617269",
    "868": "72656420",
    "869": "6269",
    "870": "636f6d6d756e",
    "871": "6f727320",
    "872": "776974682074686520",
    "873": "6c6f63",
    "874": "50726f",
    "875": "736f6c",
    "876": "61696e20",
    "877": "6c6f",
    "878": "61726420",
    "879": "73656c",
    "880": "696e746f20",
    "881": "616666",
    "882": "636f756c6420",
    "883": "7363686f6f6c",
    "884": "74656e20",
    "885": "416d65726963",
    "886": "70726f647563",
    "887": "6d616b6520",
    "888": "746963616c20",
    "889": "696e666f726d",
    "890": "6f7267616e",
    "891": "74696f6e206f6620",
    "892": "6372",
    "893": "696d706f7274",
    "894": "6d6973",
    "895": "756c617220",
    "896": "7468656d",
    "897": "646574",
    "898": "766973",
    "899": "657320696e20",
    "900": "736d",
    "901": "7570",
    "902": "2e0a0a42",
    "903": "6f6e6c7920",
    "904": "6520616e6420",
    "905": "6265696e6720",
    "906": "747920",
    "907": "7374616e64",
    "908": "7468656d20",
    "909": "74656420",
    "910": "6f7573",
    "911": "666572",
    "912": "6275696c",
    "913": "6577",
    "914": "69676e",
    "915": "2e0a0a4f",
    "916": "736974",
    "917": "666972737420",
    "918": "706f77",
    "919": "696f6e20",
    "920": "63656e74",
    "921": "5768617420",
    "922": "70726f626c",
    "923": "69666963",
    "924": "73756c",
    "925": "696c7920",
    "926": "696e672c20",
    "927": "6166",
    "928": "7375636820617320",
    "929": "6869",
    "930": "73697374",
    "931": "73797374656d",
    "932": "68656c70",
    "933": "6e6174",
    "934": "0a2d20",
    "935": "706f70",
    "936": "616e7320",
    "937": "697479206f6620",
    "938": "66616d",
    "939": "766972",
    "940": "e28093",
    "941": "61646520",
    "942": "6f6d65",
    "943": "6e656564",
    "944": "726573706f6e",
    "945": "4552",
    "946": "696e6720616e6420",
    "947": "4153",
    "948": "7320666f7220",
    "949": "776865726520",
    "950": "6c617267",
    "951": "7475726520",
    "952": "76657273",
    "953": "6174696f6e2c20",
    "954": "73696d",
    "955": "6c696e",
    "956": "636173",
    "957": "3420",
    "958": "6c6c20",
    "959": "e28094",
    "960": "686f6c",
    "961": "2e0a0a4d",
    "962": "626572",
    "963": "2e0a0a54",
    "964": "2e0a0a57",
    "965": "63756c",
    "966": "6c696b6520",
    "967": "2c20776869636820",
    "968": "617070726f",
    "969": "696e206120",
    "970": "65636f6e",
    "971": "277420",
    "972": "6c6966",
    "973": "6c6567",
    "974": "636f756e7472",
    "975": "63656c6c",
    "976": "6f79",
    "977": "6f6666",
    "978": "7665",
    "979": "736369",
    "980": "6578706c",
    "981": "65732074686520",
    "982": "636f6e74726f",
    "983": "756e646572",
    "984": "7369676e",
    "985": "6d75",
    "986": "556e",
    "987": "726f73",
    "988": "6f727920",
    "989": "6e657720",
    "990": "206f6620",
    "991": "616c69",
    "992": "70726f74",
    "993": "617274",
    "994": "61696c",
    "995": "617573",
    "996": "74726163",
    "997": "6368696c6472",
    "998": "736f63",
    "999": "646566",
    "1000": "6578616d706c",
    "1001": "6f776e",
    "1002": "636f72",
    "1003": "63616e20626520",
    "1004": "76616c75",
    "1005": "6c6576656c",
    "1006": "6974656420",
    "1007": "7567",
    "1008": "6e6f6c6f67",
    "1009": "74656d",
    "1010": "617070",
    "1011": "746861742074686520",
    "1012": "706172746963",
    "1013": "74687265",
    "1014": "456e",
    "1015": "68697374",
    "1016": "5448",
    "1017": "5349",
    "1018": "657020",
    "1019": "70726f63657373",
    "1020": "647572",
    "1021": "6d656173",
    "1022": "75616c20",
    "1023": "657874",
    "1024": "676f",
    "1025": "69736820",
    "1026": "776174657220",
    "1027": "706c6163",
    "1028": "73206f662074686520",
    "1029": "726974",
    "1030": "707269",
    "1031": "706563",
    "1032": "68756d616e20",
    "1033": "652d",
    "1034": "454d",
    "1035": "616e747320",
    "1036": "414e",
    "1037": "6c79",
    "1038": "67656e6572",
    "1039": "69676820",
    "1040": "726520",
    "1041": "323030",
    "1042": "3120",
    "1043": "697469",
    "1044": "76696e6720",
    "1045": "7420746f20",
    "1046": "612c20",
    "1047": "616d6520",
    "1048": "61742074686520",
    "1049": "676f7665726e6d656e7420",
    "1050": "2e0a0a46",
    "1051": "61726d",
    "1052": "626f64",
    "1053": "7075626c",
    "1054": "6c64",
    "1055": "74686f736520",
    "1056": "66756c20",
    "1057": "656467",
    "1058": "74696f6e7320",
    "1059": "706f7369",
    "1060": "436f6e",
    "1061": "6d75636820",
    "1062": "6a75737420",
    "1063": "697479",
    "1064": "72656173",
    "1065": "626f746820",
    "1066": "70657263",
    "1067": "6d70",
    "1068": "65636f6e6f6d",
    "1069": "6964656e7469",
    "1070": "77656c6c20",
    "1071": "6576656e20",
    "1072": "0a5b",
    "1073": "69737420",
    "1074": "6e6563",
    "1075": "747970",
    "1076": "6475636520",
    "1077": "6469766964",
    "1078": "6566666563",
    "1079": "61732074686520",
    "1080": "666f726d20",
    "1081": "70657220",
    "1082": "706f727420",
    "1083": "77697468206120",
    "1084": "2e0a0a45",
    "1085": "7665727920",
    "1086": "65732e0a0a54686520",
    "1087": "736b",
    "1088": "74776f20",
    "1089": "7375726520",
    "1090": "726573656172636820",
    "1091": "6564206120",
    "1092": "656d656e74",
    "1093": "617265",
    "1094": "757420",
    "1095": "616e7469",
    "1096": "65647563",
    "1097": "2e0a0a50",
    "1098": "5354454d",
    "1099": "4f55",
    "1100": "73746174",
    "1101": "6163636573",
    "1102": "696d70726f",
    "1103": "50797468",
    "1104": "7572616c20",
    "1105": "646966666572656e7420",
    "1106": "696369",
    "1107": "747261696e",
    "1108": "616e616c",
    "1109": "706c6963",
    "1110": "756e63",
    "1111": "6f7274",
    "1112": "6d6f",
    "1113": "62656c",
    "1114": "696e63726561736520",
    "1115": "736f6d65",
    "1116": "64697363",
    "1117": "706f77657220",
    "1118": "7369766520",
    "1119": "6265666f72",
    "1120": "70726f7669646520",
    "1121": "545d0a54686520",
    "1122": "7573657220",
    "1123": "74696d6520",
    "1124": "2a2a",
    "1125": "6e6574",
    "1126": "6e756d62657220",
    "1127": "6d6f76",
    "1128": "65617220",
    "1129": "656e7469616c20",
    "1130": "637269",
    "1131": "706572736f6e",
    "1132": "6c696e6520",
    "1133": "6162696c69747920",
    "1134": "657175",
    "1135": "6d656469",
    "1136": "67726f77",
    "1137": "776179",
    "1138": "7472656174",
    "1139": "6c61",
    "1140": "636f6e736964",
    "1141": "656c6563",
    "1142": "696e6372656173",
    "1143": "5768656e20",
    "1144": "756e69",
    "1145": "65616368",
    "1146": "4420",
    "1147": "6265636175736520",
    "1148": "5b42",
    "1149": "5b424f535d",
    "1150": "5b424f535d5b",
    "1151": "5b424f535d5b53",
    "1152": "5b424f535d5b5359",
    "1153": "5b424f535d5b53595354454d",
    "1154": "5b424f535d5b53595354454d5d20",
    "1155": "5b424f535d5b53595354454d5d20596f7520",
    "1156": "5b424f535d5b53595354454d5d20596f752061726520",
    "1157": "2e0a5b5553",
    "1158": "2e0a5b55534552",
    "1159": "2e0a5b555345525d20",
    "1160": "0a5b5448",
    "1161": "0a5b54484f55",
    "1162": "0a5b54484f5547",
    "1163": "0a5b54484f554748",
    "1164": "6b6e6f77",
    "1165": "41535349",
    "1166": "415353495354",
    "1167": "415353495354414e",
    "1168": "5b45",
    "1169": "5b454f535d",
    "1170": "5b454f535d0a0a",
    "1171": "7369626c6520",
    "1172": "697468",
    "1173": "3d20",
    "1174": "726573756c",
    "1175": "69736d20",
    "1176": "7573696e6720",
    "1177": "657920",
    "1178": "696d706f7274616e7420",
    "1179": "63616c",
    "1180": "4172",
    "1181": "666f6c",
    "1182": "6d656d",
    "1183": "626f72",
    "1184": "6c6f6e6720",
    "1185": "696e7374",
    "1186": "616674657220",
    "1187": "652c2074686520",
    "1188": "69646520",
    "1189": "2e0a0a496620",
    "1190": "676976",
    "1191": "6174656c7920",
    "1192": "65277320",
    "1193": "696e666f726d6174696f6e20",
    "1194": "6469726563",
    "1195": "6d61746572",
    "1196": "697420697320",
    "1197": "746f20626520",
    "1198": "6e6174696f6e616c20",
    "1199": "6b7320",
    "1200": "5b454f535d0a0a5b424f535d5b53595354454d5d20596f752061726520",
    "1201": "6c6561726e696e6720",
    "1202": "6561726c7920",
    "1203": "7768696c6520",
    "1204": "73746f72",
    "1205": "6572652061726520",
    "1206": "6775",
    "1207": "63616c6c",
    "1208": "616d20",
    "1209": "62656e",
    "1210": "6f6d20",
    "1211": "626f6f",
    "1212": "696465",
    "1213": "696e636520",
    "1214": "646f776e20",
    "1215": "746563686e6f6c6f67",
    "1216": "6d6574",
    "1217": "7669726f6e",
    "1218": "616464",
    "1219": "6c6f63616c20",
    "1220": "646f63",
    "1221": "64657369676e",
    "1222": "657870",
    "1223": "6865616c746820",
    "1224": "7820",
    "1225": "6368696c6472656e20",
    "1226": "67657420",
    "1227": "67726f75",
    "1228": "6963756c",
    "1229": "696c69",
    "1230": "3f0a5b54484f554748",
    "1231": "686f7720746f20",
    "1232": "436f6d",
    "1233": "6e756d626572206f6620",
    "1234": "696e677320",
    "1235": "646576",
    "1236": "62726f",
    "1237": "66696c",
    "1238": "65732061726520",
    "1239": "636f6c6c",
    "1240": "616476",
    "1241": "616c7320",
    "1242": "2c3030",
    "1243": "706f70756c",
    "1244": "6576657220",
    "1245": "63616e",
    "1246": "6e6f6e",
    "1247": "2c206120",
    "1248": "5320",
    "1249": "61636b20",
    "1250": "552e",
    "1251": "532e20",
    "1252": "666f6f6420",
    "1253": "6a6563",
    "1254": "6d6f7265207468616e20",
    "1255": "2e0a0a44",
    "1256": "686173206265656e20",
    "1257": "676f6f6420",
    "1258": "657220746f20",
    "1259": "706f74",
    "1260": "545d0a546865207573657220",
    "1261": "2e0a5b415353495354414e",
    "1262": "636f6d707574",
    "1263": "706174",
    "1264": "416c",
    "1265": "627574",
    "1266": "70726f626c656d",
    "1267": "3620",
    "1268": "6572656420",
    "1269": "6869676820",
    "1270": "73706163",
    "1271": "737570706c",
    "1272": "62792074686520",
    "1273": "6d656e74206f6620",
    "1274": "74206f662074686520",
    "1275": "696e67206f6620",
    "1276": "636f7572",
    "1277": "647269",
    "1278": "70657263656e7420",
    "1279": "61726f756e6420",
    "1280": "657468657220",
    "1281": "6f6674656e20",
    "1282": "73656520",
    "1283": "6d61646520",
    "1284": "64656d",
    "1285": "2c2062757420",
    "1286": "63617573",
    "1287": "696e636c7564696e6720",
    "1288": "706f6c6963",
    "1289": "3f0a5b54484f554748545d0a546865207573657220",
    "1290": "2e0a4920",
    "1291": "2e0a492073686f756c6420",
    "1292": "2e0a5b415353495354414e545d0a",
    "1293": "657870657269",
    "1294": "65747320",
    "1295": "656e74616c20",
    "1296": "74277320",
    "1297": "3320",
    "1298": "64206f6620",
    "1299": "526573",
    "1300": "636572",
    "1301": "646572",
    "1302": "69676874",
    "1303": "726567756c",
    "1304": "e2809320",
    "1305": "696e66",
    "1306": "73797374656d20",
    "1307": "61746976",
    "1308": "6920",
    "1309": "77617920",
    "1310": "70726f66",
    "1311": "70726573656e74",
    "1312": "5420",
    "1313": "7465616368",
    "1314": "69736520",
    "1315": "6e6f20",
    "1316": "706c6f79",
    "1317": "6c6561726e",
    "1318": "70726163",
    "1319": "6060",
    "1320": "74696d657320",
    "1321": "7473206f6620",
    "1322": "73657175",
    "1323": "7468656e20",
    "1324": "66756e64",
    "1325": "6b6e6f776e20",
    "1326": "657665727920",
    "1327": "652c20616e6420",
    "1328": "616420",
    "1329": "62656e6566",
    "1330": "7461696e",
    "1331": "7920746f20",
    "1332": "686572",
    "1333": "747261",
    "1334": "656e7669726f6e",
    "1335": "6f7765766572",
    "1336": "61757468",
    "1337": "6d656e747320",
    "1338": "736f",
    "1339": "7269736b20",
    "1340": "65642062792074686520",
    "1341": "552e532e20",
    "1342": "646179",
    "1343": "656420696e2074686520",
    "1344": "656c65637472",
    "1345": "6c65737320",
    "1346": "74696f6e2c20",
    "1347": "757365206f6620",
    "1348": "70726576",
    "1349": "2e0a0a4c",
    "1350": "65722c20",
    "1351": "6c696f6e20",
    "1352": "61626c6520746f20",
    "1353": "77696c6c20626520",
    "1354": "776f726c64",
    "1355": "696e67206120",
    "1356": "6879",
    "1357": "74757265",
    "1358": "75726f",
    "1359": "696d6d",
    "1360": "73746172",
    "1361": "6c656467",
    "1362": "2e5b454f535d0a0a5b424f535d5b53595354454d5d20596f752061726520",
    "1363": "746f72",
    "1364": "6f6c76",
    "1365": "65726e20",
    "1366": "72656164",
    "1367": "6174696f6e20616e6420",
    "1368": "6f74686572",
    "1369": "6d656173757265",
    "1370": "6d657468",
    "1371": "7265717569",
    "1372": "576f72",
    "1373": "7461696e20",
    "1374": "6a656374",
    "1375": "2e0a0a416e",
    "1376": "6368656d",
    "1377": "66696e",
    "1378": "616c2c20",
    "1379": "657720",
    "1380": "626567",
    "1381": "616e6e",
    "1382": "737475647920",
    "1383": "6d61726b",
    "1384": "646974696f6e616c20",
    "1385": "66756c",
    "1386": "766f6c",
    "1387": "636f6d6520",
    "1388": "292c20",
    "1389": "616e6369",
    "1390": "646f6d",
    "1391": "556e6974656420",
    "1392": "6e6572",
    "1393": "697020",
    "1394": "73747564656e747320",
    "1395": "686973746f72",
    "1396": "616972",
    "1397": "6b6e6f776c656467",
    "1398": "71756573",
    "1399": "6b6e6f7720",
    "1400": "616e6775",
    "1401": "666f63",
    "1402": "6c6f6e67",
    "1403": "6d756c",
    "1404": "636f6d706c6574",
    "1405": "6d616b",
    "1406": "792d",
    "1407": "74657374",
    "1408": "7175616c",
    "1409": "63686172",
    "1410": "6f63637572",
    "1411": "7374696c6c20",
    "1412": "636174",
    "1413": "69737375",
    "1414": "616761696e",
    "1415": "6c616e64",
    "1416": "636f6e74696e",
    "1417": "64656c",
    "1418": "2520",
    "1419": "626173656420",
    "1420": "61737320",
    "1421": "666c75",
    "1422": "73756666",
    "1423": "77726974",
    "1424": "7374697475",
    "1425": "656374696f6e20",
    "1426": "7265736f7572",
    "1427": "6572677920",
    "1428": "656e746c7920",
    "1429": "69737472",
    "1430": "416d65726963616e20",
    "1431": "746f6d",
    "1432": "61636869",
    "1433": "617368",
    "1434": "69746520",
    "1435": "776172",
    "1436": "2e0a5b555345525d205768617420",
    "1437": "6c6561726e20",
    "1438": "7465726e",
    "1439": "666f726d616e",
    "1440": "507974686f6e20",
    "1441": "63726561746520",
    "1442": "636f6e636570",
    "1443": "72616e67",
    "1444": "636f6e74726f6c20",
    "1445": "7369676e69666963",
    "1446": "6261636b",
    "1447": "616469",
    "1448": "6220",
    "1449": "69736d",
    "1450": "6c696d",
    "1451": "737461",
    "1452": "63686f",
    "1453": "3720",
    "1454": "6163746572",
    "1455": "6275696c64",
    "1456": "697320746f20",
    "1457": "707572",
    "1458": "70617469",
    "1459": "7072696d",
    "1460": "656e637920",
    "1461": "6d75737420",
    "1462": "6f77657665722c20",
    "1463": "4672",
    "1464": "73656e",
    "1465": "666f7263",
    "1466": "6f727420",
    "1467": "656420616e6420",
    "1468": "73207765726520",
    "1469": "74686f75676820",
    "1470": "62696c",
    "1471": "65616c",
    "1472": "746c6520",
    "1473": "61732077656c6c20",
    "1474": "656420666f7220",
    "1475": "7363686f6f6c20",
    "1476": "666f756e6420",
    "1477": "4d6172",
    "1478": "70656369",
    "1479": "4320",
    "1480": "70617274",
    "1481": "742074686520",
    "1482": "6d616368",
    "1483": "666963",
    "1484": "656e6365",
    "1485": "7420696e20",
    "1486": "656e74696f6e20",
    "1487": "77656967687420",
    "1488": "6f7267616e697a",
    "1489": "73206120",
    "1490": "616765",
    "1491": "6c6f73",
    "1492": "5020",
    "1493": "74696f6e616c20",
    "1494": "70726f766964657320",
    "1495": "6d65616e",
    "1496": "70657269",
    "1497": "6669656c",
    "1498": "303020",
    "1499": "62726561",
    "1500": "696e6469766964",
    "1501": "6963616c6c7920",
    "1502": "657220616e6420",
    "1503": "736369656e7469",
    "1504": "61697220",
    "1505": "74656d706572",
    "1506": "6c6174",
    "1507": "616761696e737420",
    "1508": "436f756e",
    "1509": "6d61696e",
    "1510": "776f6d",
    "1511": "78696d",
    "1512": "3820",
    "1513": "65732c20616e6420",
    "1514": "7468696e",
    "1515": "6e6f6e2d",
    "1516": "6c6974",
    "1517": "696e746f2074686520",
    "1518": "7468617420697320",
    "1519": "64696420",
    "1520": "696e63",
    "1521": "73756d",
    "1522": "6361726520",
    "1523": "556e69746564205374",
    "1524": "7368697020",
    "1525": "6f7665722074686520",
    "1526": "6569",
    "1527": "6265666f726520",
    "1528": "4d7573",
    "1529": "656d706c6f79",
    "1530": "74616b6520",
    "1531": "2e0a0a497420697320",
    "1532": "736f6369616c20",
    "1533": "69636b",
    "1534": "657370656369",
    "1535": "657370656369616c6c7920"
  },
  "stoi": {
    "[PAD]": 256,
    "[BOS]": 1149,
    "[EOS]": 1169,
    "[SYSTEM]": 259,
    "[USER]": 260,
    "[ASSISTANT]": 261,
    "[THOUGHT]": 262,
    "\u0000": 0,
    "\u0001": 1,
    "\u0002": 2,
    "\u0003": 3,
    "\u0004": 4,
    "\u0005": 5,
    "\u0006": 6,
    "\u0007": 7,
    "\b": 8,
    "\t": 9,
    "\n": 10,
    "\u000b": 11,
    "\f": 12,
    "\r": 13,
    "\u000e": 14,
    "\u000f": 15,
    "\u0010": 16,
    "\u0011": 17,
    "\u0012": 18,
    "\u0013": 19,
    "\u0014": 20,
    "\u0015": 21,
    "\u0016": 22,
    "\u0017": 23,
    "\u0018": 24,
    "\u0019": 25,
    "\u001a": 26,
    "\u001b": 27,
    "\u001c": 28,
    "\u001d": 29,
    "\u001e": 30,
    "\u001f": 31,
    " ": 32,
    "!": 33,
    "\"": 34,
    "#": 35,
    "$": 36,
    "%": 37,
    "&": 38,
    "'": 39,
    "(": 40,
    ")": 41,
    "*": 42,
    "+": 43,
    ",": 44,
    "-": 45,
    ".": 46,
    "/": 47,
    "0": 48,
    "1": 49,
    "2": 50,
    "3": 51,
    "4": 52,
    "5": 53,
    "6": 54,
    "7": 55,
    "8": 56,
    "9": 57,
    ":": 58,
    ";": 59,
    "<": 60,
    "=": 61,
    ">": 62,
    "?": 63,
    "@": 64,
    "A": 65,
    "B": 66,
    "C": 67,
    "D": 68,
    "E": 69,
    "F": 70,
    "G": 71,
    "H": 72,
    "I": 73,
    "J": 74,
    "K": 75,
    "L": 76,
    "M": 77,
    "N": 78,
    "O": 79,
    "P": 80,
    "Q": 81,
    "R": 82,
    "S": 83,
    "T": 84,
    "U": 85,
    "V": 86,
    "W": 87,
    "X": 88,
    "Y": 89,
    "Z": 90,
    "[": 91,
    "\\": 92,
    "]": 93,
    "^": 94,
    "_": 95,
    "`": 96,
    "a": 97,
    "b": 98,
    "c": 99,
    "d": 100,
    "e": 101,
    "f": 102,
    "g": 103,
    "h": 104,
    "i": 105,
    "j": 106,
    "k": 107,
    "l": 108,
    "m": 109,
    "n": 110,
    "o": 111,
    "p": 112,
    "q": 113,
    "r": 114,
    "s": 115,
    "t": 116,
    "u": 117,
    "v": 118,
    "w": 119,
    "x": 120,
    "y": 121,
    "z": 122,
    "{": 123,
    "|": 124,
    "}": 125,
    "~": 126,
    "\u007f": 127,
    "\ufffd": 610,
    "e ": 263,
    "s ": 264,
    "th": 265,
    "in": 266,
    "d ": 267,
    "an": 268,
    "er": 269,
    "t ": 270,
    "on": 271,
    "en": 272,
    "or": 273,
    "ti": 274,
    "the ": 275,
    ", ": 276,
    "y ": 277,
    "ar": 278,
    "\n\n": 279,
    "al": 280,
    ".\n\n": 281,
    "re": 282,
    "o ": 283,
    "of": 284,
    "of ": 285,
    "ing": 286,
    "and ": 287,
    "ou": 288,
    "to ": 289,
    "ed ": 290,
    "ing ": 291,
    "st": 292,
    "at": 293,
    "a ": 294,
    "tion": 295,
    "ro": 296,
    "es": 297,
    "in ": 298,
    "ic": 299,
    "es ": 300,
    "er ": 301,
    "el": 302,
    "ch": 303,
    "is ": 304,
    "it": 305,
    "il": 306,
    "or ": 307,
    "al ": 308,
    "ec": 309,
    "om": 310,
    "at ": 311,
    "as": 312,
    "ation": 313,
    "is": 314,
    "ac": 315,
    "an ": 316,
    "ol": 317,
    "as ": 318,
    "em": 319,
    "pl": 320,
    "us": 321,
    "ur": 322,
    "ow": 323,
    "Th": 324,
    "pro": 325,
    "ent": 326,
    "am": 327,
    "si": 328,
    "on ": 329,
    "di": 330,
    "en ": 331,
    "ent ": 332,
    "wh": 333,
    "ve ": 334,
    "th ": 335,
    ".\n\nTh": 336,
    "that ": 337,
    "ab": 338,
    "l ": 339,
    "et": 340,
    "ir": 341,
    "for ": 342,
    "un": 343,
    "su": 344,
    "con": 345,
    "m ": 346,
    "ig": 347,
    "ly ": 348,
    "ex": 349,
    "tr": 350,
    "ev": 351,
    "are ": 352,
    "os": 353,
    "ear": 354,
    "of the ": 355,
    "id": 356,
    "s, ": 357,
    "ation ": 358,
    "com": 359,
    "ed": 360,
    "per": 361,
    "ul": 362,
    "n ": 363,
    "h ": 364,
    "im": 365,
    "ag": 366,
    "ad": 367,
    "ap": 368,
    "res": 369,
    "for": 370,
    "wi": 371,
    "our": 372,
    "e, ": 373,
    ".\n\nThe ": 374,
    "the": 375,
    "ce ": 376,
    "k ": 377,
    "op": 378,
    "ch ": 379,
    "li": 380,
    "oun": 381,
    "with ": 382,
    "ha": 383,
    "ver": 384,
    "oc": 385,
    "le ": 386,
    "ma": 387,
    "'s ": 388,
    "it ": 389,
    "tic": 390,
    "od": 391,
    ".\n\nI": 392,
    "by ": 393,
    "s and ": 394,
    "tion ": 395,
    "be ": 396,
    "in the ": 397,
    "sh": 398,
    "qu": 399,
    "ter": 400,
    "fro": 401,
    "ep": 402,
    "uc": 403,
    "be": 404,
    "str": 405,
    "ts ": 406,
    "from ": 407,
    "cl": 408,
    "ud": 409,
    "ity ": 410,
    "wor": 411,
    "ere ": 412,
    "ate ": 413,
    "ow ": 414,
    "ff": 415,
    ".\n\nA": 416,
    "igh": 417,
    "sp": 418,
    "ne": 419,
    "um": 420,
    "our ": 421,
    "ic ": 422,
    "gr": 423,
    "ld ": 424,
    "ir ": 425,
    "s of ": 426,
    "no": 427,
    "e of ": 428,
    "oo": 429,
    "bl": 430,
    "ri": 431,
    "se": 432,
    "p ": 433,
    "par": 434,
    "me": 435,
    "out ": 436,
    "ers ": 437,
    "ea": 438,
    "bu": 439,
    "ed to ": 440,
    "ain": 441,
    "man": 442,
    "all": 443,
    "s.\n\n": 444,
    "ay": 445,
    "ment ": 446,
    "was ": 447,
    "ould ": 448,
    ", and ": 449,
    "ore ": 450,
    ") ": 451,
    "have ": 452,
    "ci": 453,
    "their ": 454,
    "oug": 455,
    "ces": 456,
    "ther ": 457,
    ": ": 458,
    "ure ": 459,
    "por": 460,
    "og": 461,
    "can ": 462,
    "s to ": 463,
    "pr": 464,
    "cre": 465,
    "tim": 466,
    "pe": 467,
    "ut": 468,
    "and": 469,
    "tive ": 470,
    "not ": 471,
    "has ": 472,
    "ou ": 473,
    "ef": 474,
    "ill ": 475,
    "es, ": 476,
    "enti": 477,
    "ot": 478,
    "if": 479,
    "00": 480,
    " and ": 481,
    "whic": 482,
    "ke ": 483,
    "ents ": 484,
    "ong": 485,
    "ated ": 486,
    "rec": 487,
    "end": 488,
    "so ": 489,
    "which ": 490,
    "ing the ": 491,
    "ally ": 492,
    "ov": 493,
    "dis": 494,
    "ay ": 495,
    "one ": 496,
    "ect": 497,
    "w ": 498,
    "all ": 499,
    "they ": 500,
    "est": 501,
    ", the ": 502,
    ". ": 503,
    "ang": 504,
    "pre": 505,
    "more ": 506,
    "will ": 507,
    "le": 508,
    "ra": 509,
    "ine ": 510,
    "- ": 511,
    "ar ": 512,
    "ell": 513,
    "ant ": 514,
    "we": 515,
    "use ": 516,
    "to the ": 517,
    "ta": 518,
    "form": 519,
    "ple ": 520,
    "ost ": 521,
    "ist": 522,
    "e.\n\n": 523,
    "ary ": 524,
    "vid": 525,
    "its ": 526,
    "over": 527,
    "comm": 528,
    "ter ": 529,
    "king ": 530,
    "iz": 531,
    "sy": 532,
    "enc": 533,
    "und": 534,
    "ies ": 535,
    "pres": 536,
    ".\n": 537,
    "Wh": 538,
    "y, ": 539,
    "able ": 540,
    "est ": 541,
    "this ": 542,
    "evel": 543,
    "po": 544,
    "cont": 545,
    "ure": 546,
    "about ": 547,
    "ough ": 548,
    "ese ": 549,
    "em ": 550,
    "ely ": 551,
    "hel": 552,
    "0 ": 553,
    "ome ": 554,
    "duc": 555,
    "ence ": 556,
    "ord": 557,
    "dat": 558,
    "ood ": 559,
    "vi": 560,
    "fl": 561,
    "than ": 562,
    "ical ": 563,
    "ed by ": 564,
    "were ": 565,
    ".\n\nIn ": 566,
    "dr": 567,
    "you ": 568,
    "anc": 569,
    "ial ": 570,
    "ph": 571,
    "ess": 572,
    "te": 573,
    "ther": 574,
    ".\n\nS": 575,
    "fac": 576,
    "ight ": 577,
    "du": 578,
    "own ": 579,
    "ob": 580,
    "br": 581,
    "age ": 582,
    "19": 583,
    "pos": 584,
    "t of ": 585,
    "Ch": 586,
    "ates ": 587,
    "year": 588,
    "how ": 589,
    "he": 590,
    "peo": 591,
    "int": 592,
    "your ": 593,
    "other ": 594,
    "ment": 595,
    "stud": 596,
    "we ": 597,
    "kn": 598,
    "is a ": 599,
    "olog": 600,
    "tiv": 601,
    "but ": 602,
    "ser": 603,
    "inter": 604,
    "clud": 605,
    "pa": 606,
    "?\n\n": 607,
    "reg": 608,
    "st ": 609,
    "ant": 611,
    "lear": 612,
    "thr": 613,
    "id ": 614,
    "sa": 615,
    "e to ": 616,
    "iv": 617,
    "sid": 618,
    "ase ": 619,
    "arg": 620,
    "includ": 621,
    "port": 622,
    "on the ": 623,
    "ool": 624,
    "ans": 625,
    "min": 626,
    "also ": 627,
    "proces": 628,
    "ong ": 629,
    "comp": 630,
    "ari": 631,
    "fi": 632,
    "de": 633,
    "ever": 634,
    "ance ": 635,
    "who ": 636,
    "and the ": 637,
    "coun": 638,
    "ous ": 639,
    "ill": 640,
    "ard": 641,
    "et ": 642,
    "been ": 643,
    "I ": 644,
    "pol": 645,
    "ed in ": 646,
    "us ": 647,
    ".\n\nIt ": 648,
    "f ": 649,
    "ties ": 650,
    "e the ": 651,
    "rel": 652,
    "many ": 653,
    "av": 654,
    "most ": 655,
    "20": 656,
    "for the ": 657,
    "ound ": 658,
    "gram": 659,
    "s in ": 660,
    "ust ": 661,
    "ass": 662,
    "tic ": 663,
    "bo": 664,
    "spec": 665,
    "work": 666,
    "ip": 667,
    "up ": 668,
    "St": 669,
    "from the ": 670,
    "se ": 671,
    ".\n\nThis ": 672,
    "y.\n\n": 673,
    "people ": 674,
    "provid": 675,
    "dec": 676,
    "mon": 677,
    "such ": 678,
    "fe": 679,
    "ris": 680,
    "bec": 681,
    "The ": 682,
    "ning ": 683,
    "el ": 684,
    "through ": 685,
    "bet": 686,
    "ell ": 687,
    "In": 688,
    "des": 689,
    "syst": 690,
    "ion": 691,
    "diff": 692,
    "these ": 693,
    "sup": 694,
    "tu": 695,
    "col": 696,
    "ST": 697,
    "gre": 698,
    "5 ": 699,
    "ations ": 700,
    "evelop": 701,
    "OS": 702,
    "] ": 703,
    "sion": 704,
    "ile ": 705,
    "ast": 706,
    "gen": 707,
    "had ": 708,
    "A ": 709,
    "sub": 710,
    "pu": 711,
    "ose ": 712,
    "gl": 713,
    "ess ": 714,
    "chil": 715,
    "when ": 716,
    "incre": 717,
    "ed the ": 718,
    "exper": 719,
    "may ": 720,
    "sur": 721,
    "au": 722,
    "mer": 723,
    "]\n": 724,
    "struc": 725,
    "work ": 726,
    "eng": 727,
    "row": 728,
    "wat": 729,
    "rea": 730,
    "es and ": 731,
    "ational ": 732,
    "ber ": 733,
    "develop": 734,
    "s that ": 735,
    "ni": 736,
    "tw": 737,
    "fir": 738,
    "OS]": 739,
    "T]\n": 740,
    "data ": 741,
    "s are ": 742,
    "what ": 743,
    "abil": 744,
    "cur": 745,
    "out": 746,
    "eg": 747,
    "y and ": 748,
    "sec": 749,
    "should ": 750,
    "tri": 751,
    "as a ": 752,
    "ect ": 753,
    "sti": 754,
    "es.\n\n": 755,
    "; ": 756,
    "chool": 757,
    "do ": 758,
    "ble ": 759,
    "ke": 760,
    "inv": 761,
    "ed, ": 762,
    "some ": 763,
    "dition": 764,
    "ish": 765,
    "es of ": 766,
    "car": 767,
    ".\n[": 768,
    "program": 769,
    "ack": 770,
    "s the ": 771,
    "num": 772,
    "ting ": 773,
    "tis": 774,
    "low": 775,
    "ice ": 776,
    "co": 777,
    "mar": 778,
    "exam": 779,
    "eff": 780,
    "alu": 781,
    "ind": 782,
    "fr": 783,
    "um ": 784,
    "bas": 785,
    "2 ": 786,
    "ement ": 787,
    "y of ": 788,
    "would ": 789,
    "18": 790,
    "s.\n\nThe ": 791,
    "his ": 792,
    "ood": 793,
    "ause ": 794,
    "mod": 795,
    "mil": 796,
    "tur": 797,
    "high": 798,
    "ast ": 799,
    "il ": 800,
    ".\n\nH": 801,
    "heal": 802,
    "he ": 803,
    "aw": 804,
    "ough": 805,
    "help ": 806,
    "yth": 807,
    "es to ": 808,
    "ound": 809,
    "org": 810,
    "chang": 811,
    "ial": 812,
    "att": 813,
    "yp": 814,
    "sig": 815,
    "serv": 816,
    ".\n\nA ": 817,
    "overn": 818,
    "resear": 819,
    "fu": 820,
    "any ": 821,
    "ation of ": 822,
    "over ": 823,
    "conc": 824,
    "differ": 825,
    "abl": 826,
    "cap": 827,
    "ating ": 828,
    "requ": 829,
    "if ": 830,
    "US": 831,
    "do": 832,
    "plan": 833,
    "with": 834,
    "trans": 835,
    "used ": 836,
    "ys": 837,
    "each ": 838,
    "pers": 839,
    "mat": 840,
    "201": 841,
    "tre": 842,
    "end ": 843,
    "ative ": 844,
    "meric": 845,
    "pon": 846,
    "compl": 847,
    "is the ": 848,
    "ween ": 849,
    "nam": 850,
    "  ": 851,
    "hum": 852,
    "ing to ": 853,
    "eas": 854,
    "sion ": 855,
    "ach": 856,
    "dep": 857,
    "to": 858,
    "tech": 859,
    "erg": 860,
    "s, and ": 861,
    "acc": 862,
    "govern": 863,
    "You ": 864,
    "ind ": 865,
    "between ": 866,
    "vari": 867,
    "red ": 868,
    "bi": 869,
    "commun": 870,
    "ors ": 871,
    "with the ": 872,
    "loc": 873,
    "Pro": 874,
    "sol": 875,
    "ain ": 876,
    "lo": 877,
    "ard ": 878,
    "sel": 879,
    "into ": 880,
    "aff": 881,
    "could ": 882,
    "school": 883,
    "ten ": 884,
    "Americ": 885,
    "produc": 886,
    "make ": 887,
    "tical ": 888,
    "inform": 889,
    "organ": 890,
    "tion of ": 891,
    "cr": 892,
    "import": 893,
    "mis": 894,
    "ular ": 895,
    "them": 896,
    "det": 897,
    "vis": 898,
    "es in ": 899,
    "sm": 900,
    "up": 901,
    ".\n\nB": 902,
    "only ": 903,
    "e and ": 904,
    "being ": 905,
    "ty ": 906,
    "stand": 907,
    "them ": 908,
    "ted ": 909,
    "ous": 910,
    "fer": 911,
    "buil": 912,
    "ew": 913,
    "ign": 914,
    ".\n\nO": 915,
    "sit": 916,
    "first ": 917,
    "pow": 918,
    "ion ": 919,
    "cent": 920,
    "What ": 921,
    "probl": 922,
    "ific": 923,
    "sul": 924,
    "ily ": 925,
    "ing, ": 926,
    "af": 927,
    "such as ": 928,
    "hi": 929,
    "sist": 930,
    "system": 931,
    "help": 932,
    "nat": 933,
    "\n- ": 934,
    "pop": 935,
    "ans ": 936,
    "ity of ": 937,
    "fam": 938,
    "vir": 939,
    "\u2013": 940,
    "ade ": 941,
    "ome": 942,
    "need": 943,
    "respon": 944,
    "ER": 945,
    "ing and ": 946,
    "AS": 947,
    "s for ": 948,
    "where ": 949,
    "larg": 950,
    "ture ": 951,
    "vers": 952,
    "ation, ": 953,
    "sim": 954,
    "lin": 955,
    "cas": 956,
    "4 ": 957,
    "ll ": 958,
    "\u2014": 959,
    "hol": 960,
    ".\n\nM": 961,
    "ber": 962,
    ".\n\nT": 963,
    ".\n\nW": 964,
    "cul": 965,
    "like ": 966,
    ", which ": 967,
    "appro": 968,
    "in a ": 969,
    "econ": 970,
    "'t ": 971,
    "lif": 972,
    "leg": 973,
    "countr": 974,
    "cell": 975,
    "oy": 976,
    "off": 977,
    "ve": 978,
    "sci": 979,
    "expl": 980,
    "es the ": 981,
    "contro": 982,
    "under": 983,
    "sign": 984,
    "mu": 985,
    "Un": 986,
    "ros": 987,
    "ory ": 988,
    "new ": 989,
    " of ": 990,
    "ali": 991,
    "prot": 992,
    "art": 993,
    "ail": 994,
    "aus": 995,
    "trac": 996,
    "childr": 997,
    "soc": 998,
    "def": 999,
    "exampl": 1000,
    "own": 1001,
    "cor": 1002,
    "can be ": 1003,
    "valu": 1004,
    "level": 1005,
    "ited ": 1006,
    "ug": 1007,
    "nolog": 1008,
    "tem": 1009,
    "app": 1010,
    "that the ": 1011,
    "partic": 1012,
    "thre": 1013,
    "En": 1014,
    "hist": 1015,
    "TH": 1016,
    "SI": 1017,
    "ep ": 1018,
    "process": 1019,
    "dur": 1020,
    "meas": 1021,
    "ual ": 1022,
    "ext": 1023,
    "go": 1024,
    "ish ": 1025,
    "water ": 1026,
    "plac": 1027,
    "s of the ": 1028,
    "rit": 1029,
    "pri": 1030,
    "pec": 1031,
    "human ": 1032,
    "e-": 1033,
    "EM": 1034,
    "ants ": 1035,
    "AN": 1036,
    "ly": 1037,
    "gener": 1038,
    "igh ": 1039,
    "re ": 1040,
    "200": 1041,
    "1 ": 1042,
    "iti": 1043,
    "ving ": 1044,
    "t to ": 1045,
    "a, ": 1046,
    "ame ": 1047,
    "at the ": 1048,
    "government ": 1049,
    ".\n\nF": 1050,
    "arm": 1051,
    "bod": 1052,
    "publ": 1053,
    "ld": 1054,
    "those ": 1055,
    "ful ": 1056,
    "edg": 1057,
    "tions ": 1058,
    "posi": 1059,
    "Con": 1060,
    "much ": 1061,
    "just ": 1062,
    "ity": 1063,
    "reas": 1064,
    "both ": 1065,
    "perc": 1066,
    "mp": 1067,
    "econom": 1068,
    "identi": 1069,
    "well ": 1070,
    "even ": 1071,
    "\n[": 1072,
    "ist ": 1073,
    "nec": 1074,
    "typ": 1075,
    "duce ": 1076,
    "divid": 1077,
    "effec": 1078,
    "as the ": 1079,
    "form ": 1080,
    "per ": 1081,
    "port ": 1082,
    "with a ": 1083,
    ".\n\nE": 1084,
    "very ": 1085,
    "es.\n\nThe ": 1086,
    "sk": 1087,
    "two ": 1088,
    "sure ": 1089,
    "research ": 1090,
    "ed a ": 1091,
    "ement": 1092,
    "are": 1093,
    "ut ": 1094,
    "anti": 1095,
    "educ": 1096,
    ".\n\nP": 1097,
    "STEM": 1098,
    "OU": 1099,
    "stat": 1100,
    "acces": 1101,
    "impro": 1102,
    "Pyth": 1103,
    "ural ": 1104,
    "different ": 1105,
    "ici": 1106,
    "train": 1107,
    "anal": 1108,
    "plic": 1109,
    "unc": 1110,
    "ort": 1111,
    "mo": 1112,
    "bel": 1113,
    "increase ": 1114,
    "some": 1115,
    "disc": 1116,
    "power ": 1117,
    "sive ": 1118,
    "befor": 1119,
    "provide ": 1120,
    "T]\nThe ": 1121,
    "user ": 1122,
    "time ": 1123,
    "**": 1124,
    "net": 1125,
    "number ": 1126,
    "mov": 1127,
    "ear ": 1128,
    "ential ": 1129,
    "cri": 1130,
    "person": 1131,
    "line ": 1132,
    "ability ": 1133,
    "equ": 1134,
    "medi": 1135,
    "grow": 1136,
    "way": 1137,
    "treat": 1138,
    "la": 1139,
    "consid": 1140,
    "elec": 1141,
    "increas": 1142,
    "When ": 1143,
    "uni": 1144,
    "each": 1145,
    "D ": 1146,
    "because ": 1147,
    "[B": 1148,
    "[BOS][": 1150,
    "[BOS][S": 1151,
    "[BOS][SY": 1152,
    "[BOS][SYSTEM": 1153,
    "[BOS][SYSTEM] ": 1154,
    "[BOS][SYSTEM] You ": 1155,
    "[BOS][SYSTEM] You are ": 1156,
    ".\n[US": 1157,
    ".\n[USER": 1158,
    ".\n[USER] ": 1159,
    "\n[TH": 1160,
    "\n[THOU": 1161,
    "\n[THOUG": 1162,
    "\n[THOUGH": 1163,
    "know": 1164,
    "ASSI": 1165,
    "ASSIST": 1166,
    "ASSISTAN": 1167,
    "[E": 1168,
    "[EOS]\n\n": 1170,
    "sible ": 1171,
    "ith": 1172,
    "= ": 1173,
    "resul": 1174,
    "ism ": 1175,
    "using ": 1176,
    "ey ": 1177,
    "important ": 1178,
    "cal": 1179,
    "Ar": 1180,
    "fol": 1181,
    "mem": 1182,
    "bor": 1183,
    "long ": 1184,
    "inst": 1185,
    "after ": 1186,
    "e, the ": 1187,
    "ide ": 1188,
    ".\n\nIf ": 1189,
    "giv": 1190,
    "ately ": 1191,
    "e's ": 1192,
    "information ": 1193,
    "direc": 1194,
    "mater": 1195,
    "it is ": 1196,
    "to be ": 1197,
    "national ": 1198,
    "ks ": 1199,
    "[EOS]\n\n[BOS][SYSTEM] You are ": 1200,
    "learning ": 1201,
    "early ": 1202,
    "while ": 1203,
    "stor": 1204,
    "ere are ": 1205,
    "gu": 1206,
    "call": 1207,
    "am ": 1208,
    "ben": 1209,
    "om ": 1210,
    "boo": 1211,
    "ide": 1212,
    "ince ": 1213,
    "down ": 1214,
    "technolog": 1215,
    "met": 1216,
    "viron": 1217,
    "add": 1218,
    "local ": 1219,
    "doc": 1220,
    "design": 1221,
    "exp": 1222,
    "health ": 1223,
    "x ": 1224,
    "children ": 1225,
    "get ": 1226,
    "grou": 1227,
    "icul": 1228,
    "ili": 1229,
    "?\n[THOUGH": 1230,
    "how to ": 1231,
    "Com": 1232,
    "number of ": 1233,
    "ings ": 1234,
    "dev": 1235,
    "bro": 1236,
    "fil": 1237,
    "es are ": 1238,
    "coll": 1239,
    "adv": 1240,
    "als ": 1241,
    ",00": 1242,
    "popul": 1243,
    "ever ": 1244,
    "can": 1245,
    "non": 1246,
    ", a ": 1247,
    "S ": 1248,
    "ack ": 1249,
    "U.": 1250,
    "S. ": 1251,
    "food ": 1252,
    "jec": 1253,
    "more than ": 1254,
    ".\n\nD": 1255,
    "has been ": 1256,
    "good ": 1257,
    "er to ": 1258,
    "pot": 1259,
    "T]\nThe user ": 1260,
    ".\n[ASSISTAN": 1261,
    "comput": 1262,
    "pat": 1263,
    "Al": 1264,
    "but": 1265,
    "problem": 1266,
    "6 ": 1267,
    "ered ": 1268,
    "high ": 1269,
    "spac": 1270,
    "suppl": 1271,
    "by the ": 1272,
    "ment of ": 1273,
    "t of the ": 1274,
    "ing of ": 1275,
    "cour": 1276,
    "dri": 1277,
    "percent ": 1278,
    "around ": 1279,
    "ether ": 1280,
    "often ": 1281,
    "see ": 1282,
    "made ": 1283,
    "dem": 1284,
    ", but ": 1285,
    "caus": 1286,
    "including ": 1287,
    "polic": 1288,
    "?\n[THOUGHT]\nThe user ": 1289,
    ".\nI ": 1290,
    ".\nI should ": 1291,
    ".\n[ASSISTANT]\n": 1292,
    "experi": 1293,
    "ets ": 1294,
    "ental ": 1295,
    "t's ": 1296,
    "3 ": 1297,
    "d of ": 1298,
    "Res": 1299,
    "cer": 1300,
    "der": 1301,
    "ight": 1302,
    "regul": 1303,
    "\u2013 ": 1304,
    "inf": 1305,
    "system ": 1306,
    "ativ": 1307,
    "i ": 1308,
    "way ": 1309,
    "prof": 1310,
    "present": 1311,
    "T ": 1312,
    "teach": 1313,
    "ise ": 1314,
    "no ": 1315,
    "ploy": 1316,
    "learn": 1317,
    "prac": 1318,
    "``": 1319,
    "times ": 1320,
    "ts of ": 1321,
    "sequ": 1322,
    "then ": 1323,
    "fund": 1324,
    "known ": 1325,
    "every ": 1326,
    "e, and ": 1327,
    "ad ": 1328,
    "benef": 1329,
    "tain": 1330,
    "y to ": 1331,
    "her": 1332,
    "tra": 1333,
    "environ": 1334,
    "owever": 1335,
    "auth": 1336,
    "ments ": 1337,
    "so": 1338,
    "risk ": 1339,
    "ed by the ": 1340,
    "U.S. ": 1341,
    "day": 1342,
    "ed in the ": 1343,
    "electr": 1344,
    "less ": 1345,
    "tion, ": 1346,
    "use of ": 1347,
    "prev": 1348,
    ".\n\nL": 1349,
    "er, ": 1350,
    "lion ": 1351,
    "able to ": 1352,
    "will be ": 1353,
    "world": 1354,
    "ing a ": 1355,
    "hy": 1356,
    "ture": 1357,
    "uro": 1358,
    "imm": 1359,
    "star": 1360,
    "ledg": 1361,
    ".[EOS]\n\n[BOS][SYSTEM] You are ": 1362,
    "tor": 1363,
    "olv": 1364,
    "ern ": 1365,
    "read": 1366,
    "ation and ": 1367,
    "other": 1368,
    "measure": 1369,
    "meth": 1370,
    "requi": 1371,
    "Wor": 1372,
    "tain ": 1373,
    "ject": 1374,
    ".\n\nAn": 1375,
    "chem": 1376,
    "fin": 1377,
    "al, ": 1378,
    "ew ": 1379,
    "beg": 1380,
    "ann": 1381,
    "study ": 1382,
    "mark": 1383,
    "ditional ": 1384,
    "ful": 1385,
    "vol": 1386,
    "come ": 1387,
    "), ": 1388,
    "anci": 1389,
    "dom": 1390,
    "United ": 1391,
    "ner": 1392,
    "ip ": 1393,
    "students ": 1394,
    "histor": 1395,
    "air": 1396,
    "knowledg": 1397,
    "ques": 1398,
    "know ": 1399,
    "angu": 1400,
    "foc": 1401,
    "long": 1402,
    "mul": 1403,
    "complet": 1404,
    "mak": 1405,
    "y-": 1406,
    "test": 1407,
    "qual": 1408,
    "char": 1409,
    "occur": 1410,
    "still ": 1411,
    "cat": 1412,
    "issu": 1413,
    "again": 1414,
    "land": 1415,
    "contin": 1416,
    "del": 1417,
    "% ": 1418,
    "based ": 1419,
    "ass ": 1420,
    "flu": 1421,
    "suff": 1422,
    "writ": 1423,
    "stitu": 1424,
    "ection ": 1425,
    "resour": 1426,
    "ergy ": 1427,
    "ently ": 1428,
    "istr": 1429,
    "American ": 1430,
    "tom": 1431,
    "achi": 1432,
    "ash": 1433,
    "ite ": 1434,
    "war": 1435,
    ".\n[USER] What ": 1436,
    "learn ": 1437,
    "tern": 1438,
    "forman": 1439,
    "Python ": 1440,
    "create ": 1441,
    "concep": 1442,
    "rang": 1443,
    "control ": 1444,
    "signific": 1445,
    "back": 1446,
    "adi": 1447,
    "b ": 1448,
    "ism": 1449,
    "lim": 1450,
    "sta": 1451,
    "cho": 1452,
    "7 ": 1453,
    "acter": 1454,
    "build": 1455,
    "is to ": 1456,
    "pur": 1457,
    "pati": 1458,
    "prim": 1459,
    "ency ": 1460,
    "must ": 1461,
    "owever, ": 1462,
    "Fr": 1463,
    "sen": 1464,
    "forc": 1465,
    "ort ": 1466,
    "ed and ": 1467,
    "s were ": 1468,
    "though ": 1469,
    "bil": 1470,
    "eal": 1471,
    "tle ": 1472,
    "as well ": 1473,
    "ed for ": 1474,
    "school ": 1475,
    "found ": 1476,
    "Mar": 1477,
    "peci": 1478,
    "C ": 1479,
    "part": 1480,
    "t the ": 1481,
    "mach": 1482,
    "fic": 1483,
    "ence": 1484,
    "t in ": 1485,
    "ention ": 1486,
    "weight ": 1487,
    "organiz": 1488,
    "s a ": 1489,
    "age": 1490,
    "los": 1491,
    "P ": 1492,
    "tional ": 1493,
    "provides ": 1494,
    "mean": 1495,
    "peri": 1496,
    "fiel": 1497,
    "00 ": 1498,
    "brea": 1499,
    "individ": 1500,
    "ically ": 1501,
    "er and ": 1502,
    "scienti": 1503,
    "air ": 1504,
    "temper": 1505,
    "lat": 1506,
    "against ": 1507,
    "Coun": 1508,
    "main": 1509,
    "wom": 1510,
    "xim": 1511,
    "8 ": 1512,
    "es, and ": 1513,
    "thin": 1514,
    "non-": 1515,
    "lit": 1516,
    "into the ": 1517,
    "that is ": 1518,
    "did ": 1519,
    "inc": 1520,
    "sum": 1521,
    "care ": 1522,
    "United St": 1523,
    "ship ": 1524,
    "over the ": 1525,
    "ei": 1526,
    "before ": 1527,
    "Mus": 1528,
    "employ": 1529,
    "take ": 1530,
    ".\n\nIt is ": 1531,
    "social ": 1532,
    "ick": 1533,
    "especi": 1534,
    "especially ": 1535
  },
  "itos": {
    "256": "[PAD]",
    "257": "[BOS]",
    "258": "[EOS]",
    "259": "[SYSTEM]",
    "260": "[USER]",
    "261": "[ASSISTANT]",
    "262": "[THOUGHT]",
    "0": "\u0000",
    "1": "\u0001",
    "2": "\u0002",
    "3": "\u0003",
    "4": "\u0004",
    "5": "\u0005",
    "6": "\u0006",
    "7": "\u0007",
    "8": "\b",
    "9": "\t",
    "10": "\n",
    "11": "\u000b",
    "12": "\f",
    "13": "\r",
    "14": "\u000e",
    "15": "\u000f",
    "16": "\u0010",
    "17": "\u0011",
    "18": "\u0012",
    "19": "\u0013",
    "20": "\u0014",
    "21": "\u0015",
    "22": "\u0016",
    "23": "\u0017",
    "24": "\u0018",
    "25": "\u0019",
    "26": "\u001a",
    "27": "\u001b",
    "28": "\u001c",
    "29": "\u001d",
    "30": "\u001e",
    "31": "\u001f",
    "32": " ",
    "33": "!",
    "34": "\"",
    "35": "#",
    "36": "$",
    "37": "%",
    "38": "&",
    "39": "'",
    "40": "(",
    "41": ")",
    "42": "*",
    "43": "+",
    "44": ",",
    "45": "-",
    "46": ".",
    "47": "/",
    "48": "0",
    "49": "1",
    "50": "2",
    "51": "3",
    "52": "4",
    "53": "5",
    "54": "6",
    "55": "7",
    "56": "8",
    "57": "9",
    "58": ":",
    "59": ";",
    "60": "<",
    "61": "=",
    "62": ">",
    "63": "?",
    "64": "@",
    "65": "A",
    "66": "B",
    "67": "C",
    "68": "D",
    "69": "E",
    "70": "F",
    "71": "G",
    "72": "H",
    "73": "I",
    "74": "J",
    "75": "K",
    "76": "L",
    "77": "M",
    "78": "N",
    "79": "O",
    "80": "P",
    "81": "Q",
    "82": "R",
    "83": "S",
    "84": "T",
    "85": "U",
    "86": "V",
    "87": "W",
    "88": "X",
    "89": "Y",
    "90": "Z",
    "91": "[",
    "92": "\\",
    "93": "]",
    "94": "^",
    "95": "_",
    "96": "`",
    "97": "a",
    "98": "b",
    "99": "c",
    "100": "d",
    "101": "e",
    "102": "f",
    "103": "g",
    "104": "h",
    "105": "i",
    "106": "j",
    "107": "k",
    "108": "l",
    "109": "m",
    "110": "n",
    "111": "o",
    "112": "p",
    "113": "q",
    "114": "r",
    "115": "s",
    "116": "t",
    "117": "u",
    "118": "v",
    "119": "w",
    "120": "x",
    "121": "y",
    "122": "z",
    "123": "{",
    "124": "|",
    "125": "}",
    "126": "~",
    "127": "\u007f",
    "128": "\ufffd",
    "129": "\ufffd",
    "130": "\ufffd",
    "131": "\ufffd",
    "132": "\ufffd",
    "133": "\ufffd",
    "134": "\ufffd",
    "135": "\ufffd",
    "136": "\ufffd",
    "137": "\ufffd",
    "138": "\ufffd",
    "139": "\ufffd",
    "140": "\ufffd",
    "141": "\ufffd",
    "142": "\ufffd",
    "143": "\ufffd",
    "144": "\ufffd",
    "145": "\ufffd",
    "146": "\ufffd",
    "147": "\ufffd",
    "148": "\ufffd",
    "149": "\ufffd",
    "150": "\ufffd",
    "151": "\ufffd",
    "152": "\ufffd",
    "153": "\ufffd",
    "154": "\ufffd",
    "155": "\ufffd",
    "156": "\ufffd",
    "157": "\ufffd",
    "158": "\ufffd",
    "159": "\ufffd",
    "160": "\ufffd",
    "161": "\ufffd",
    "162": "\ufffd",
    "163": "\ufffd",
    "164": "\ufffd",
    "165": "\ufffd",
    "166": "\ufffd",
    "167": "\ufffd",
    "168": "\ufffd",
    "169": "\ufffd",
    "170": "\ufffd",
    "171": "\ufffd",
    "172": "\ufffd",
    "173": "\ufffd",
    "174": "\ufffd",
    "175": "\ufffd",
    "176": "\ufffd",
    "177": "\ufffd",
    "178": "\ufffd",
    "179": "\ufffd",
    "180": "\ufffd",
    "181": "\ufffd",
    "182": "\ufffd",
    "183": "\ufffd",
    "184": "\ufffd",
    "185": "\ufffd",
    "186": "\ufffd",
    "187": "\ufffd",
    "188": "\ufffd",
    "189": "\ufffd",
    "190": "\ufffd",
    "191": "\ufffd",
    "192": "\ufffd",
    "193": "\ufffd",
    "194": "\ufffd",
    "195": "\ufffd",
    "196": "\ufffd",
    "197": "\ufffd",
    "198": "\ufffd",
    "199": "\ufffd",
    "200": "\ufffd",
    "201": "\ufffd",
    "202": "\ufffd",
    "203": "\ufffd",
    "204": "\ufffd",
    "205": "\ufffd",
    "206": "\ufffd",
    "207": "\ufffd",
    "208": "\ufffd",
    "209": "\ufffd",
    "210": "\ufffd",
    "211": "\ufffd",
    "212": "\ufffd",
    "213": "\ufffd",
    "214": "\ufffd",
    "215": "\ufffd",
    "216": "\ufffd",
    "217": "\ufffd",
    "218": "\ufffd",
    "219": "\ufffd",
    "220": "\ufffd",
    "221": "\ufffd",
    "222": "\ufffd",
    "223": "\ufffd",
    "224": "\ufffd",
    "225": "\ufffd",
    "226": "\ufffd",
    "227": "\ufffd",
    "228": "\ufffd",
    "229": "\ufffd",
    "230": "\ufffd",
    "231": "\ufffd",
    "232": "\ufffd",
    "233": "\ufffd",
    "234": "\ufffd",
    "235": "\ufffd",
    "236": "\ufffd",
    "237": "\ufffd",
    "238": "\ufffd",
    "239": "\ufffd",
    "240": "\ufffd",
    "241": "\ufffd",
    "242": "\ufffd",
    "243": "\ufffd",
    "244": "\ufffd",
    "245": "\ufffd",
    "246": "\ufffd",
    "247": "\ufffd",
    "248": "\ufffd",
    "249": "\ufffd",
    "250": "\ufffd",
    "251": "\ufffd",
    "252": "\ufffd",
    "253": "\ufffd",
    "254": "\ufffd",
    "255": "\ufffd",
    "263": "e ",
    "264": "s ",
    "265": "th",
    "266": "in",
    "267": "d ",
    "268": "an",
    "269": "er",
    "270": "t ",
    "271": "on",
    "272": "en",
    "273": "or",
    "274": "ti",
    "275": "the ",
    "276": ", ",
    "277": "y ",
    "278": "ar",
    "279": "\n\n",
    "280": "al",
    "281": ".\n\n",
    "282": "re",
    "283": "o ",
    "284": "of",
    "285": "of ",
    "286": "ing",
    "287": "and ",
    "288": "ou",
    "289": "to ",
    "290": "ed ",
    "291": "ing ",
    "292": "st",
    "293": "at",
    "294": "a ",
    "295": "tion",
    "296": "ro",
    "297": "es",
    "298": "in ",
    "299": "ic",
    "300": "es ",
    "301": "er ",
    "302": "el",
    "303": "ch",
    "304": "is ",
    "305": "it",
    "306": "il",
    "307": "or ",
    "308": "al ",
    "309": "ec",
    "310": "om",
    "311": "at ",
    "312": "as",
    "313": "ation",
    "314": "is",
    "315": "ac",
    "316": "an ",
    "317": "ol",
    "318": "as ",
    "319": "em",
    "320": "pl",
    "321": "us",
    "322": "ur",
    "323": "ow",
    "324": "Th",
    "325": "pro",
    "326": "ent",
    "327": "am",
    "328": "si",
    "329": "on ",
    "330": "di",
    "331": "en ",
    "332": "ent ",
    "333": "wh",
    "334": "ve ",
    "335": "th ",
    "336": ".\n\nTh",
    "337": "that ",
    "338": "ab",
    "339": "l ",
    "340": "et",
    "341": "ir",
    "342": "for ",
    "343": "un",
    "344": "su",
    "345": "con",
    "346": "m ",
    "347": "ig",
    "348": "ly ",
    "349": "ex",
    "350": "tr",
    "351": "ev",
    "352": "are ",
    "353": "os",
    "354": "ear",
    "355": "of the ",
    "356": "id",
    "357": "s, ",
    "358": "ation ",
    "359": "com",
    "360": "ed",
    "361": "per",
    "362": "ul",
    "363": "n ",
    "364": "h ",
    "365": "im",
    "366": "ag",
    "367": "ad",
    "368": "ap",
    "369": "res",
    "370": "for",
    "371": "wi",
    "372": "our",
    "373": "e, ",
    "374": ".\n\nThe ",
    "375": "the",
    "376": "ce ",
    "377": "k ",
    "378": "op",
    "379": "ch ",
    "380": "li",
    "381": "oun",
    "382": "with ",
    "383": "ha",
    "384": "ver",
    "385": "oc",
    "386": "le ",
    "387": "ma",
    "388": "'s ",
    "389": "it ",
    "390": "tic",
    "391": "od",
    "392": ".\n\nI",
    "393": "by ",
    "394": "s and ",
    "395": "tion ",
    "396": "be ",
    "397": "in the ",
    "398": "sh",
    "399": "qu",
    "400": "ter",
    "401": "fro",
    "402": "ep",
    "403": "uc",
    "404": "be",
    "405": "str",
    "406": "ts ",
    "407": "from ",
    "408": "cl",
    "409": "ud",
    "410": "ity ",
    "411": "wor",
    "412": "ere ",
    "413": "ate ",
    "414": "ow ",
    "415": "ff",
    "416": ".\n\nA",
    "417": "igh",
    "418": "sp",
    "419": "ne",
    "420": "um",
    "421": "our ",
    "422": "ic ",
    "423": "gr",
    "424": "ld ",
    "425": "ir ",
    "426": "s of ",
    "427": "no",
    "428": "e of ",
    "429": "oo",
    "430": "bl",
    "431": "ri",
    "432": "se",
    "433": "p ",
    "434": "par",
    "435": "me",
    "436": "out ",
    "437": "ers ",
    "438": "ea",
    "439": "bu",
    "440": "ed to ",
    "441": "ain",
    "442": "man",
    "443": "all",
    "444": "s.\n\n",
    "445": "ay",
    "446": "ment ",
    "447": "was ",
    "448": "ould ",
    "449": ", and ",
    "450": "ore ",
    "451": ") ",
    "452": "have ",
    "453": "ci",
    "454": "their ",
    "455": "oug",
    "456": "ces",
    "457": "ther ",
    "458": ": ",
    "459": "ure ",
    "460": "por",
    "461": "og",
    "462": "can ",
    "463": "s to ",
    "464": "pr",
    "465": "cre",
    "466": "tim",
    "467": "pe",
    "468": "ut",
    "469": "and",
    "470": "tive ",
    "471": "not ",
    "472": "has ",
    "473": "ou ",
    "474": "ef",
    "475": "ill ",
    "476": "es, ",
    "477": "enti",
    "478": "ot",
    "479": "if",
    "480": "00",
    "481": " and ",
    "482": "whic",
    "483": "ke ",
    "484": "ents ",
    "485": "ong",
    "486": "ated ",
    "487": "rec",
    "488": "end",
    "489": "so ",
    "490": "which ",
    "491": "ing the ",
    "492": "ally ",
    "493": "ov",
    "494": "dis",
    "495": "ay ",
    "496": "one ",
    "497": "ect",
    "498": "w ",
    "499": "all ",
    "500": "they ",
    "501": "est",
    "502": ", the ",
    "503": ". ",
    "504": "ang",
    "505": "pre",
    "506": "more ",
    "507": "will ",
    "508": "le",
    "509": "ra",
    "510": "ine ",
    "511": "- ",
    "512": "ar ",
    "513": "ell",
    "514": "ant ",
    "515": "we",
    "516": "use ",
    "517": "to the ",
    "518": "ta",
    "519": "form",
    "520": "ple ",
    "521": "ost ",
    "522": "ist",
    "523": "e.\n\n",
    "524": "ary ",
    "525": "vid",
    "526": "its ",
    "527": "over",
    "528": "comm",
    "529": "ter ",
    "530": "king ",
    "531": "iz",
    "532": "sy",
    "533": "enc",
    "534": "und",
    "535": "ies ",
    "536": "pres",
    "537": ".\n",
    "538": "Wh",
    "539": "y, ",
    "540": "able ",
    "541": "est ",
    "542": "this ",
    "543": "evel",
    "544": "po",
    "545": "cont",
    "546": "ure",
    "547": "about ",
    "548": "ough ",
    "549": "ese ",
    "550": "em ",
    "551": "ely ",
    "552": "hel",
    "553": "0 ",
    "554": "ome ",
    "555": "duc",
    "556": "ence ",
    "557": "ord",
    "558": "dat",
    "559": "ood ",
    "560": "vi",
    "561": "fl",
    "562": "than ",
    "563": "ical ",
    "564": "ed by ",
    "565": "were ",
    "566": ".\n\nIn ",
    "567": "dr",
    "568": "you ",
    "569": "anc",
    "570": "ial ",
    "571": "ph",
    "572": "ess",
    "573": "te",
    "574": "ther",
    "575": ".\n\nS",
    "576": "fac",
    "577": "ight ",
    "578": "du",
    "579": "own ",
    "580": "ob",
    "581": "br",
    "582": "age ",
    "583": "19",
    "584": "pos",
    "585": "t of ",
    "586": "Ch",
    "587": "ates ",
    "588": "year",
    "589": "how ",
    "590": "he",
    "591": "peo",
    "592": "int",
    "593": "your ",
    "594": "other ",
    "595": "ment",
    "596": "stud",
    "597": "we ",
    "598": "kn",
    "599": "is a ",
    "600": "olog",
    "601": "tiv",
    "602": "but ",
    "603": "ser",
    "604": "inter",
    "605": "clud",
    "606": "pa",
    "607": "?\n\n",
    "608": "reg",
    "609": "st ",
    "610": "\ufffd",
    "611": "ant",
    "612": "lear",
    "613": "thr",
    "614": "id ",
    "615": "sa",
    "616": "e to ",
    "617": "iv",
    "618": "sid",
    "619": "ase ",
    "620": "arg",
    "621": "includ",
    "622": "port",
    "623": "on the ",
    "624": "ool",
    "625": "ans",
    "626": "min",
    "627": "also ",
    "628": "proces",
    "629": "ong ",
    "630": "comp",
    "631": "ari",
    "632": "fi",
    "633": "de",
    "634": "ever",
    "635": "ance ",
    "636": "who ",
    "637": "and the ",
    "638": "coun",
    "639": "ous ",
    "640": "ill",
    "641": "ard",
    "642": "et ",
    "643": "been ",
    "644": "I ",
    "645": "pol",
    "646": "ed in ",
    "647": "us ",
    "648": ".\n\nIt ",
    "649": "f ",
    "650": "ties ",
    "651": "e the ",
    "652": "rel",
    "653": "many ",
    "654": "av",
    "655": "most ",
    "656": "20",
    "657": "for the ",
    "658": "ound ",
    "659": "gram",
    "660": "s in ",
    "661": "ust ",
    "662": "ass",
    "663": "tic ",
    "664": "bo",
    "665": "spec",
    "666": "work",
    "667": "ip",
    "668": "up ",
    "669": "St",
    "670": "from the ",
    "671": "se ",
    "672": ".\n\nThis ",
    "673": "y.\n\n",
    "674": "people ",
    "675": "provid",
    "676": "dec",
    "677": "mon",
    "678": "such ",
    "679": "fe",
    "680": "ris",
    "681": "bec",
    "682": "The ",
    "683": "ning ",
    "684": "el ",
    "685": "through ",
    "686": "bet",
    "687": "ell ",
    "688": "In",
    "689": "des",
    "690": "syst",
    "691": "ion",
    "692": "diff",
    "693": "these ",
    "694": "sup",
    "695": "tu",
    "696": "col",
    "697": "ST",
    "698": "gre",
    "699": "5 ",
    "700": "ations ",
    "701": "evelop",
    "702": "OS",
    "703": "] ",
    "704": "sion",
    "705": "ile ",
    "706": "ast",
    "707": "gen",
    "708": "had ",
    "709": "A ",
    "710": "sub",
    "711": "pu",
    "712": "ose ",
    "713": "gl",
    "714": "ess ",
    "715": "chil",
    "716": "when ",
    "717": "incre",
    "718": "ed the ",
    "719": "exper",
    "720": "may ",
    "721": "sur",
    "722": "au",
    "723": "mer",
    "724": "]\n",
    "725": "struc",
    "726": "work ",
    "727": "eng",
    "728": "row",
    "729": "wat",
    "730": "rea",
    "731": "es and ",
    "732": "ational ",
    "733": "ber ",
    "734": "develop",
    "735": "s that ",
    "736": "ni",
    "737": "tw",
    "738": "fir",
    "739": "OS]",
    "740": "T]\n",
    "741": "data ",
    "742": "s are ",
    "743": "what ",
    "744": "abil",
    "745": "cur",
    "746": "out",
    "747": "eg",
    "748": "y and ",
    "749": "sec",
    "750": "should ",
    "751": "tri",
    "752": "as a ",
    "753": "ect ",
    "754": "sti",
    "755": "es.\n\n",
    "756": "; ",
    "757": "chool",
    "758": "do ",
    "759": "ble ",
    "760": "ke",
    "761": "inv",
    "762": "ed, ",
    "763": "some ",
    "764": "dition",
    "765": "ish",
    "766": "es of ",
    "767": "car",
    "768": ".\n[",
    "769": "program",
    "770": "ack",
    "771": "s the ",
    "772": "num",
    "773": "ting ",
    "774": "tis",
    "775": "low",
    "776": "ice ",
    "777": "co",
    "778": "mar",
    "779": "exam",
    "780": "eff",
    "781": "alu",
    "782": "ind",
    "783": "fr",
    "784": "um ",
    "785": "bas",
    "786": "2 ",
    "787": "ement ",
    "788": "y of ",
    "789": "would ",
    "790": "18",
    "791": "s.\n\nThe ",
    "792": "his ",
    "793": "ood",
    "794": "ause ",
    "795": "mod",
    "796": "mil",
    "797": "tur",
    "798": "high",
    "799": "ast ",
    "800": "il ",
    "801": ".\n\nH",
    "802": "heal",
    "803": "he ",
    "804": "aw",
    "805": "ough",
    "806": "help ",
    "807": "yth",
    "808": "es to ",
    "809": "ound",
    "810": "org",
    "811": "chang",
    "812": "ial",
    "813": "att",
    "814": "yp",
    "815": "sig",
    "816": "serv",
    "817": ".\n\nA ",
    "818": "overn",
    "819": "resear",
    "820": "fu",
    "821": "any ",
    "822": "ation of ",
    "823": "over ",
    "824": "conc",
    "825": "differ",
    "826": "abl",
    "827": "cap",
    "828": "ating ",
    "829": "requ",
    "830": "if ",
    "831": "US",
    "832": "do",
    "833": "plan",
    "834": "with",
    "835": "trans",
    "836": "used ",
    "837": "ys",
    "838": "each ",
    "839": "pers",
    "840": "mat",
    "841": "201",
    "842": "tre",
    "843": "end ",
    "844": "ative ",
    "845": "meric",
    "846": "pon",
    "847": "compl",
    "848": "is the ",
    "849": "ween ",
    "850": "nam",
    "851": "  ",
    "852": "hum",
    "853": "ing to ",
    "854": "eas",
    "855": "sion ",
    "856": "ach",
    "857": "dep",
    "858": "to",
    "859": "tech",
    "860": "erg",
    "861": "s, and ",
    "862": "acc",
    "863": "govern",
    "864": "You ",
    "865": "ind ",
    "866": "between ",
    "867": "vari",
    "868": "red ",
    "869": "bi",
    "870": "commun",
    "871": "ors ",
    "872": "with the ",
    "873": "loc",
    "874": "Pro",
    "875": "sol",
    "876": "ain ",
    "877": "lo",
    "878": "ard ",
    "879": "sel",
    "880": "into ",
    "881": "aff",
    "882": "could ",
    "883": "school",
    "884": "ten ",
    "885": "Americ",
    "886": "produc",
    "887": "make ",
    "888": "tical ",
    "889": "inform",
    "890": "organ",
    "891": "tion of ",
    "892": "cr",
    "893": "import",
    "894": "mis",
    "895": "ular ",
    "896": "them",
    "897": "det",
    "898": "vis",
    "899": "es in ",
    "900": "sm",
    "901": "up",
    "902": ".\n\nB",
    "903": "only ",
    "904": "e and ",
    "905": "being ",
    "906": "ty ",
    "907": "stand",
    "908": "them ",
    "909": "ted ",
    "910": "ous",
    "911": "fer",
    "912": "buil",
    "913": "ew",
    "914": "ign",
    "915": ".\n\nO",
    "916": "sit",
    "917": "first ",
    "918": "pow",
    "919": "ion ",
    "920": "cent",
    "921": "What ",
    "922": "probl",
    "923": "ific",
    "924": "sul",
    "925": "ily ",
    "926": "ing, ",
    "927": "af",
    "928": "such as ",
    "929": "hi",
    "930": "sist",
    "931": "system",
    "932": "help",
    "933": "nat",
    "934": "\n- ",
    "935": "pop",
    "936": "ans ",
    "937": "ity of ",
    "938": "fam",
    "939": "vir",
    "940": "\u2013",
    "941": "ade ",
    "942": "ome",
    "943": "need",
    "944": "respon",
    "945": "ER",
    "946": "ing and ",
    "947": "AS",
    "948": "s for ",
    "949": "where ",
    "950": "larg",
    "951": "ture ",
    "952": "vers",
    "953": "ation, ",
    "954": "sim",
    "955": "lin",
    "956": "cas",
    "957": "4 ",
    "958": "ll ",
    "959": "\u2014",
    "960": "hol",
    "961": ".\n\nM",
    "962": "ber",
    "963": ".\n\nT",
    "964": ".\n\nW",
    "965": "cul",
    "966": "like ",
    "967": ", which ",
    "968": "appro",
    "969": "in a ",
    "970": "econ",
    "971": "'t ",
    "972": "lif",
    "973": "leg",
    "974": "countr",
    "975": "cell",
    "976": "oy",
    "977": "off",
    "978": "ve",
    "979": "sci",
    "980": "expl",
    "981": "es the ",
    "982": "contro",
    "983": "under",
    "984": "sign",
    "985": "mu",
    "986": "Un",
    "987": "ros",
    "988": "ory ",
    "989": "new ",
    "990": " of ",
    "991": "ali",
    "992": "prot",
    "993": "art",
    "994": "ail",
    "995": "aus",
    "996": "trac",
    "997": "childr",
    "998": "soc",
    "999": "def",
    "1000": "exampl",
    "1001": "own",
    "1002": "cor",
    "1003": "can be ",
    "1004": "valu",
    "1005": "level",
    "1006": "ited ",
    "1007": "ug",
    "1008": "nolog",
    "1009": "tem",
    "1010": "app",
    "1011": "that the ",
    "1012": "partic",
    "1013": "thre",
    "1014": "En",
    "1015": "hist",
    "1016": "TH",
    "1017": "SI",
    "1018": "ep ",
    "1019": "process",
    "1020": "dur",
    "1021": "meas",
    "1022": "ual ",
    "1023": "ext",
    "1024": "go",
    "1025": "ish ",
    "1026": "water ",
    "1027": "plac",
    "1028": "s of the ",
    "1029": "rit",
    "1030": "pri",
    "1031": "pec",
    "1032": "human ",
    "1033": "e-",
    "1034": "EM",
    "1035": "ants ",
    "1036": "AN",
    "1037": "ly",
    "1038": "gener",
    "1039": "igh ",
    "1040": "re ",
    "1041": "200",
    "1042": "1 ",
    "1043": "iti",
    "1044": "ving ",
    "1045": "t to ",
    "1046": "a, ",
    "1047": "ame ",
    "1048": "at the ",
    "1049": "government ",
    "1050": ".\n\nF",
    "1051": "arm",
    "1052": "bod",
    "1053": "publ",
    "1054": "ld",
    "1055": "those ",
    "1056": "ful ",
    "1057": "edg",
    "1058": "tions ",
    "1059": "posi",
    "1060": "Con",
    "1061": "much ",
    "1062": "just ",
    "1063": "ity",
    "1064": "reas",
    "1065": "both ",
    "1066": "perc",
    "1067": "mp",
    "1068": "econom",
    "1069": "identi",
    "1070": "well ",
    "1071": "even ",
    "1072": "\n[",
    "1073": "ist ",
    "1074": "nec",
    "1075": "typ",
    "1076": "duce ",
    "1077": "divid",
    "1078": "effec",
    "1079": "as the ",
    "1080": "form ",
    "1081": "per ",
    "1082": "port ",
    "1083": "with a ",
    "1084": ".\n\nE",
    "1085": "very ",
    "1086": "es.\n\nThe ",
    "1087": "sk",
    "1088": "two ",
    "1089": "sure ",
    "1090": "research ",
    "1091": "ed a ",
    "1092": "ement",
    "1093": "are",
    "1094": "ut ",
    "1095": "anti",
    "1096": "educ",
    "1097": ".\n\nP",
    "1098": "STEM",
    "1099": "OU",
    "1100": "stat",
    "1101": "acces",
    "1102": "impro",
    "1103": "Pyth",
    "1104": "ural ",
    "1105": "different ",
    "1106": "ici",
    "1107": "train",
    "1108": "anal",
    "1109": "plic",
    "1110": "unc",
    "1111": "ort",
    "1112": "mo",
    "1113": "bel",
    "1114": "increase ",
    "1115": "some",
    "1116": "disc",
    "1117": "power ",
    "1118": "sive ",
    "1119": "befor",
    "1120": "provide ",
    "1121": "T]\nThe ",
    "1122": "user ",
    "1123": "time ",
    "1124": "**",
    "1125": "net",
    "1126": "number ",
    "1127": "mov",
    "1128": "ear ",
    "1129": "ential ",
    "1130": "cri",
    "1131": "person",
    "1132": "line ",
    "1133": "ability ",
    "1134": "equ",
    "1135": "medi",
    "1136": "grow",
    "1137": "way",
    "1138": "treat",
    "1139": "la",
    "1140": "consid",
    "1141": "elec",
    "1142": "increas",
    "1143": "When ",
    "1144": "uni",
    "1145": "each",
    "1146": "D ",
    "1147": "because ",
    "1148": "[B",
    "1149": "[BOS]",
    "1150": "[BOS][",
    "1151": "[BOS][S",
    "1152": "[BOS][SY",
    "1153": "[BOS][SYSTEM",
    "1154": "[BOS][SYSTEM] ",
    "1155": "[BOS][SYSTEM] You ",
    "1156": "[BOS][SYSTEM] You are ",
    "1157": ".\n[US",
    "1158": ".\n[USER",
    "1159": ".\n[USER] ",
    "1160": "\n[TH",
    "1161": "\n[THOU",
    "1162": "\n[THOUG",
    "1163": "\n[THOUGH",
    "1164": "know",
    "1165": "ASSI",
    "1166": "ASSIST",
    "1167": "ASSISTAN",
    "1168": "[E",
    "1169": "[EOS]",
    "1170": "[EOS]\n\n",
    "1171": "sible ",
    "1172": "ith",
    "1173": "= ",
    "1174": "resul",
    "1175": "ism ",
    "1176": "using ",
    "1177": "ey ",
    "1178": "important ",
    "1179": "cal",
    "1180": "Ar",
    "1181": "fol",
    "1182": "mem",
    "1183": "bor",
    "1184": "long ",
    "1185": "inst",
    "1186": "after ",
    "1187": "e, the ",
    "1188": "ide ",
    "1189": ".\n\nIf ",
    "1190": "giv",
    "1191": "ately ",
    "1192": "e's ",
    "1193": "information ",
    "1194": "direc",
    "1195": "mater",
    "1196": "it is ",
    "1197": "to be ",
    "1198": "national ",
    "1199": "ks ",
    "1200": "[EOS]\n\n[BOS][SYSTEM] You are ",
    "1201": "learning ",
    "1202": "early ",
    "1203": "while ",
    "1204": "stor",
    "1205": "ere are ",
    "1206": "gu",
    "1207": "call",
    "1208": "am ",
    "1209": "ben",
    "1210": "om ",
    "1211": "boo",
    "1212": "ide",
    "1213": "ince ",
    "1214": "down ",
    "1215": "technolog",
    "1216": "met",
    "1217": "viron",
    "1218": "add",
    "1219": "local ",
    "1220": "doc",
    "1221": "design",
    "1222": "exp",
    "1223": "health ",
    "1224": "x ",
    "1225": "children ",
    "1226": "get ",
    "1227": "grou",
    "1228": "icul",
    "1229": "ili",
    "1230": "?\n[THOUGH",
    "1231": "how to ",
    "1232": "Com",
    "1233": "number of ",
    "1234": "ings ",
    "1235": "dev",
    "1236": "bro",
    "1237": "fil",
    "1238": "es are ",
    "1239": "coll",
    "1240": "adv",
    "1241": "als ",
    "1242": ",00",
    "1243": "popul",
    "1244": "ever ",
    "1245": "can",
    "1246": "non",
    "1247": ", a ",
    "1248": "S ",
    "1249": "ack ",
    "1250": "U.",
    "1251": "S. ",
    "1252": "food ",
    "1253": "jec",
    "1254": "more than ",
    "1255": ".\n\nD",
    "1256": "has been ",
    "1257": "good ",
    "1258": "er to ",
    "1259": "pot",
    "1260": "T]\nThe user ",
    "1261": ".\n[ASSISTAN",
    "1262": "comput",
    "1263": "pat",
    "1264": "Al",
    "1265": "but",
    "1266": "problem",
    "1267": "6 ",
    "1268": "ered ",
    "1269": "high ",
    "1270": "spac",
    "1271": "suppl",
    "1272": "by the ",
    "1273": "ment of ",
    "1274": "t of the ",
    "1275": "ing of ",
    "1276": "cour",
    "1277": "dri",
    "1278": "percent ",
    "1279": "around ",
    "1280": "ether ",
    "1281": "often ",
    "1282": "see ",
    "1283": "made ",
    "1284": "dem",
    "1285": ", but ",
    "1286": "caus",
    "1287": "including ",
    "1288": "polic",
    "1289": "?\n[THOUGHT]\nThe user ",
    "1290": ".\nI ",
    "1291": ".\nI should ",
    "1292": ".\n[ASSISTANT]\n",
    "1293": "experi",
    "1294": "ets ",
    "1295": "ental ",
    "1296": "t's ",
    "1297": "3 ",
    "1298": "d of ",
    "1299": "Res",
    "1300": "cer",
    "1301": "der",
    "1302": "ight",
    "1303": "regul",
    "1304": "\u2013 ",
    "1305": "inf",
    "1306": "system ",
    "1307": "ativ",
    "1308": "i ",
    "1309": "way ",
    "1310": "prof",
    "1311": "present",
    "1312": "T ",
    "1313": "teach",
    "1314": "ise ",
    "1315": "no ",
    "1316": "ploy",
    "1317": "learn",
    "1318": "prac",
    "1319": "``",
    "1320": "times ",
    "1321": "ts of ",
    "1322": "sequ",
    "1323": "then ",
    "1324": "fund",
    "1325": "known ",
    "1326": "every ",
    "1327": "e, and ",
    "1328": "ad ",
    "1329": "benef",
    "1330": "tain",
    "1331": "y to ",
    "1332": "her",
    "1333": "tra",
    "1334": "environ",
    "1335": "owever",
    "1336": "auth",
    "1337": "ments ",
    "1338": "so",
    "1339": "risk ",
    "1340": "ed by the ",
    "1341": "U.S. ",
    "1342": "day",
    "1343": "ed in the ",
    "1344": "electr",
    "1345": "less ",
    "1346": "tion, ",
    "1347": "use of ",
    "1348": "prev",
    "1349": ".\n\nL",
    "1350": "er, ",
    "1351": "lion ",
    "1352": "able to ",
    "1353": "will be ",
    "1354": "world",
    "1355": "ing a ",
    "1356": "hy",
    "1357": "ture",
    "1358": "uro",
    "1359": "imm",
    "1360": "star",
    "1361": "ledg",
    "1362": ".[EOS]\n\n[BOS][SYSTEM] You are ",
    "1363": "tor",
    "1364": "olv",
    "1365": "ern ",
    "1366": "read",
    "1367": "ation and ",
    "1368": "other",
    "1369": "measure",
    "1370": "meth",
    "1371": "requi",
    "1372": "Wor",
    "1373": "tain ",
    "1374": "ject",
    "1375": ".\n\nAn",
    "1376": "chem",
    "1377": "fin",
    "1378": "al, ",
    "1379": "ew ",
    "1380": "beg",
    "1381": "ann",
    "1382": "study ",
    "1383": "mark",
    "1384": "ditional ",
    "1385": "ful",
    "1386": "vol",
    "1387": "come ",
    "1388": "), ",
    "1389": "anci",
    "1390": "dom",
    "1391": "United ",
    "1392": "ner",
    "1393": "ip ",
    "1394": "students ",
    "1395": "histor",
    "1396": "air",
    "1397": "knowledg",
    "1398": "ques",
    "1399": "know ",
    "1400": "angu",
    "1401": "foc",
    "1402": "long",
    "1403": "mul",
    "1404": "complet",
    "1405": "mak",
    "1406": "y-",
    "1407": "test",
    "1408": "qual",
    "1409": "char",
    "1410": "occur",
    "1411": "still ",
    "1412": "cat",
    "1413": "issu",
    "1414": "again",
    "1415": "land",
    "1416": "contin",
    "1417": "del",
    "1418": "% ",
    "1419": "based ",
    "1420": "ass ",
    "1421": "flu",
    "1422": "suff",
    "1423": "writ",
    "1424": "stitu",
    "1425": "ection ",
    "1426": "resour",
    "1427": "ergy ",
    "1428": "ently ",
    "1429": "istr",
    "1430": "American ",
    "1431": "tom",
    "1432": "achi",
    "1433": "ash",
    "1434": "ite ",
    "1435": "war",
    "1436": ".\n[USER] What ",
    "1437": "learn ",
    "1438": "tern",
    "1439": "forman",
    "1440": "Python ",
    "1441": "create ",
    "1442": "concep",
    "1443": "rang",
    "1444": "control ",
    "1445": "signific",
    "1446": "back",
    "1447": "adi",
    "1448": "b ",
    "1449": "ism",
    "1450": "lim",
    "1451": "sta",
    "1452": "cho",
    "1453": "7 ",
    "1454": "acter",
    "1455": "build",
    "1456": "is to ",
    "1457": "pur",
    "1458": "pati",
    "1459": "prim",
    "1460": "ency ",
    "1461": "must ",
    "1462": "owever, ",
    "1463": "Fr",
    "1464": "sen",
    "1465": "forc",
    "1466": "ort ",
    "1467": "ed and ",
    "1468": "s were ",
    "1469": "though ",
    "1470": "bil",
    "1471": "eal",
    "1472": "tle ",
    "1473": "as well ",
    "1474": "ed for ",
    "1475": "school ",
    "1476": "found ",
    "1477": "Mar",
    "1478": "peci",
    "1479": "C ",
    "1480": "part",
    "1481": "t the ",
    "1482": "mach",
    "1483": "fic",
    "1484": "ence",
    "1485": "t in ",
    "1486": "ention ",
    "1487": "weight ",
    "1488": "organiz",
    "1489": "s a ",
    "1490": "age",
    "1491": "los",
    "1492": "P ",
    "1493": "tional ",
    "1494": "provides ",
    "1495": "mean",
    "1496": "peri",
    "1497": "fiel",
    "1498": "00 ",
    "1499": "brea",
    "1500": "individ",
    "1501": "ically ",
    "1502": "er and ",
    "1503": "scienti",
    "1504": "air ",
    "1505": "temper",
    "1506": "lat",
    "1507": "against ",
    "1508": "Coun",
    "1509": "main",
    "1510": "wom",
    "1511": "xim",
    "1512": "8 ",
    "1513": "es, and ",
    "1514": "thin",
    "1515": "non-",
    "1516": "lit",
    "1517": "into the ",
    "1518": "that is ",
    "1519": "did ",
    "1520": "inc",
    "1521": "sum",
    "1522": "care ",
    "1523": "United St",
    "1524": "ship ",
    "1525": "over the ",
    "1526": "ei",
    "1527": "before ",
    "1528": "Mus",
    "1529": "employ",
    "1530": "take ",
    "1531": ".\n\nIt is ",
    "1532": "social ",
    "1533": "ick",
    "1534": "especi",
    "1535": "especially "
  }
}